03
0C
10
F8
ED
F6
10
1F
16
03
EF
E9
F0
F4
F6
FC
FD
ED
06
0A
0B
F5
FF
11
13
0E
F5
F4
F7
02
EB
01
ED
F6
0B
0E
18
0E
ED
03
FC
01
F4
01
14
0A
18
15
0E
07
02
10
0B
17
0E
FF
FF
1B
07
04
F7
12
0A
06
18
1F
11
FF
1D
01
05
ED
09
0E
1D
FF
21
15
04
0B
1A
0B
1C
15
13
08
05
FA
05
18
00
0F
FC
11
10
09
15
2E
06
F6
08
ED
F0
F3
0C
FE
06
C3
26
FD
0A
27
26
FE
06
1A
1A
D7
E1
F2
1D
22
FB
E0
F9
EB
24
2A
05
EE
DA
FC
16
F5
E5
02
F3
FD
0D
EC
D2
F3
FB
13
0B
F9
F1
1D
1C
F2
F6
ED
0B
03
FD
F1
FC
E6
FA
F9
0F
FE
18
FA
F6
15
07
04
05
ED
F8
F7
F3
FD
F7
E1
ED
F5
07
02
23
01
F2
0E
00
FE
EA
F9
03
08
17
16
17
08
F2
02
03
08
0F
05
0D
F8
F5
00
FD
01
05
F9
06
0B
04
15
14
01
0A
0E
F2
02
07
F7
10
14
FA
FB
FE
0A
FE
04
F8
F5
FE
06
05
F6
07
09
0A
10
1B
0A
F6
F0
EE
26
22
FF
04
F0
E7
07
EE
E2
EF
EC
0B
F1
FA
09
0E
0D
F1
07
F2
D5
24
11
06
F1
F9
F7
1B
24
17
14
F7
F8
EC
00
CB
02
12
09
22
F7
E1
EB
E4
ED
F0
DD
E4
0E
F0
00
F9
EB
E2
FB
04
EB
EF
EC
F4
EA
FA
FA
03
09
F6
EF
F1
D8
F6
EC
F0
ED
FC
FF
FE
FF
EA
10
FC
F9
F9
00
FC
E7
F7
05
F1
ED
F1
0A
FA
EE
F4
19
F7
14
F2
EE
EE
ED
FC
DD
CE
FF
F3
00
FB
0E
05
10
06
D9
EA
FE
CD
D0
ED
F7
19
11
F7
F9
EA
FE
E4
07
19
0B
00
E6
F5
18
00
02
F8
F0
D9
1A
0E
04
EB
F2
11
04
DE
F0
F3
0A
EF
DB
20
0A
23
24
DE
07
42
FA
FD
18
17
F2
30
17
EC
02
20
1C
E0
17
D0
24
18
B1
54
41
C3
FC
03
22
57
02
01
05
F4
D3
2F
F5
FD
2D
0F
F1
F0
F4
ED
D4
EA
01
11
F0
FC
0B
07
E8
DB
DC
0E
12
0C
FE
E0
FC
F5
FA
0B
0B
18
1B
F2
12
12
FE
DF
ED
0A
02
0B
07
13
0C
12
F3
17
E3
EA
EF
17
06
02
13
08
0F
14
04
FE
1C
14
11
FB
03
20
0D
F0
E8
FD
0F
FE
F7
0C
11
10
0A
04
17
15
F6
06
0F
06
01
12
00
21
16
FD
0E
17
FC
14
15
F3
0F
0A
11
21
1A
0A
14
CF
DF
12
D3
F6
FF
E8
E6
1C
21
FB
05
07
FB
13
32
12
DC
A7
B4
EB
02
11
28
04
FC
F7
FB
24
03
07
F4
CA
A7
DE
08
10
06
CD
C1
AC
1E
F5
E3
17
FE
FD
F0
E4
F9
02
FE
1B
F8
F3
DE
FD
F9
09
04
F2
F8
E5
EE
E5
DE
EC
F7
22
23
0C
EA
E8
EB
10
09
07
05
0C
18
0C
FB
D6
FF
F9
FC
F1
E4
D3
FA
00
FE
FC
0F
02
EF
0C
0C
FF
0E
0E
01
03
09
FB
0E
11
FE
05
0F
10
10
05
ED
0A
06
03
F9
FF
06
F2
F4
09
0C
08
0E
0E
09
FD
01
19
03
0F
14
0D
F9
FC
EA
E8
E5
07
01
06
00
13
01
F1
FF
E0
E2
14
29
06
0D
33
02
0D
0D
07
FA
FA
ED
F8
FE
FA
0F
21
14
21
09
0E
04
0B
04
ED
EB
D1
E5
1A
FC
FD
EF
FF
F8
EA
E7
EC
EC
14
F9
ED
E3
EA
FC
F9
F9
FA
FF
0D
0F
17
20
11
05
02
0B
EA
00
FD
FA
05
12
D9
EE
F9
14
2A
18
E9
E2
EB
02
E9
FD
EC
09
08
05
04
17
F9
0D
14
1A
09
FC
10
E6
EA
FC
F6
FD
14
09
F6
EF
E1
EA
04
F9
FC
17
1D
12
05
06
0B
F2
E7
E9
00
F7
ED
EA
F9
F2
FC
0F
FF
0B
F8
F2
F8
FB
F2
FA
F8
0F
DB
D5
E5
F9
FB
FA
05
10
15
18
17
F5
E1
F1
E1
09
07
F9
E9
F4
FC
EC
00
FA
05
18
1B
FD
FF
FD
03
12
FB
EB
FD
E6
F3
08
FE
F8
0E
0C
09
04
01
01
09
12
F6
F8
EB
F3
E8
EB
0C
F3
04
E0
E9
F3
1A
FF
0D
E6
FE
05
EF
F6
EF
EB
FA
EA
04
F3
09
FE
09
FB
DD
DB
E8
F1
FA
12
D5
D6
E3
03
08
FC
FE
F3
0D
0C
FD
06
02
04
0B
11
FF
FB
04
13
FD
F5
06
FA
08
03
0B
DA
E7
F4
08
1D
19
F9
0B
0F
07
F0
F5
04
F8
0A
F8
F2
E4
FC
07
FE
03
08
ED
01
16
08
F0
05
10
FE
03
FE
FB
F7
FE
02
09
0C
F8
0E
09
19
12
FA
F1
E7
FC
1C
00
F1
D3
E2
FA
FE
04
FC
0F
FE
0B
EF
F8
F1
2A
15
21
10
E9
E6
08
13
06
02
14
FF
06
0D
F5
00
FC
1E
1C
FE
FB
02
EA
F6
F8
F4
F7
0F
00
01
0C
0B
F2
EE
E6
F9
18
0E
12
01
13
FD
FF
EE
ED
00
07
00
EF
03
FC
FC
09
0F
02
0C
08
02
06
FB
E5
EB
F6
FA
03
00
01
F4
EF
FA
DD
F3
ED
18
06
F8
E7
E1
F9
FA
F3
01
DD
F6
F7
F0
04
00
E3
E6
FB
E7
F2
FF
FC
FA
F6
EF
FC
00
EA
DD
E3
F4
EC
EC
F1
0C
EB
F3
E5
E3
F9
0A
E1
E9
EE
E4
FF
F6
11
03
ED
EF
07
12
14
F6
E9
F9
ED
F8
1D
05
F9
F3
03
16
01
1C
1F
0A
16
04
F8
0C
0A
0F
F2
FF
FE
1C
2D
00
00
FB
01
15
04
EB
E6
06
16
23
0A
E5
E9
F1
41
8A
68
C0
31
07
DB
EC
14
0F
04
ED
AF
36
1C
E0
6C
E4
00
43
E0
C3
20
29
41
DC
EC
EC
E7
3E
02
F9
3A
B5
2B
23
D9
1B
0D
2C
96
EB
14
E1
0C
02
04
E5
FC
0B
05
E1
F7
08
FA
0B
06
07
E5
05
F9
0B
14
0D
04
03
F5
F3
0E
E3
EC
0F
00
F3
F1
FE
F8
19
CF
E3
F2
FF
0A
0D
F3
E4
03
F7
01
02
B2
DB
F0
06
22
24
10
10
08
FC
FA
06
06
07
0A
06
FC
FD
07
1A
15
E3
E1
FA
0C
07
0C
E4
00
FB
02
02
F1
FC
F3
F4
FE
F8
F7
F3
F0
06
08
EE
0B
07
01
06
FF
F0
F6
06
F8
E1
FE
04
F1
1E
11
12
1F
06
EC
0A
04
F9
03
05
F7
0E
06
12
0C
09
F4
0E
06
FB
FE
F8
FD
09
FB
F7
1B
1A
1D
FB
14
00
07
07
12
0F
0D
02
0E
F9
FF
FD
07
04
01
18
1B
FD
F5
0F
F8
11
0D
00
FE
08
00
DC
F1
2F
1F
22
F0
0F
00
F5
EB
EF
E7
F5
15
F8
EA
E9
FE
1B
F3
16
0B
08
1B
06
0D
E9
FB
E3
FC
07
FA
FF
16
F4
36
C3
10
D8
05
12
06
DA
0E
29
08
D9
F7
EF
1F
D8
D5
7F
EE
10
22
FA
09
E7
F5
F1
26
2A
2E
B5
CF
35
19
FC
B2
5A
35
EE
CA
DB
36
0E
DF
0E
0A
F8
B7
3B
02
1C
0C
1B
FE
F2
E5
01
08
F3
04
ED
EC
E5
C3
01
01
06
29
14
1E
0E
DC
DF
E7
DE
FE
06
1B
20
14
18
F9
E2
FA
02
0A
FD
FC
01
02
01
E2
03
F7
F3
09
27
E5
40
B9
D4
DB
0D
0B
E1
F6
F8
06
0B
F9
F4
F2
DB
EF
4D
32
28
20
EE
0D
EC
EF
F4
0A
00
F6
02
E5
FC
20
F8
25
FC
11
EB
E7
3E
0A
12
C7
15
1D
E6
D6
EC
