E6
F7
02
E7
23
01
9F
FC
21
06
06
06
D8
F9
F9
F3
F9
ED
F9
0D
FD
E3
CD
F7
05
B2
3B
EB
02
E2
FE
F3
0A
E5
04
F0
D2
08
0B
FE
14
FC
E7
14
D5
DA
03
15
CE
F3
01
06
1B
00
FB
EC
F8
D9
E2
E3
00
E4
D5
F6
1A
12
00
07
F3
00
FA
EC
FE
0D
E0
E9
EF
DA
DC
FC
FD
01
F9
0F
14
FC
F6
F0
B1
E7
CD
F3
FA
BE
E4
1C
1C
FC
DC
E0
F7
FF
18
06
F1
06
0F
07
FF
FE
F1
F6
06
07
18
10
1E
27
E9
FF
33
05
18
D5
0D
12
D9
EC
04
49
F9
E4
11
F0
EA
E7
12
31
F9
F4
31
18
01
10
43
17
F8
EB
F8
F7
0E
ED
E7
11
0A
05
CC
09
1C
28
18
22
23
F6
EE
C6
FA
E8
F7
EE
19
02
FE
F7
21
F2
0E
01
E0
F7
08
08
01
FF
FD
18
1E
13
11
CB
FE
EE
E0
09
F6
1E
0A
1C
09
EA
09
8B
F3
0B
EA
05
25
DD
0A
05
D7
18
CB
D9
F7
EB
F4
1A
F6
F2
02
15
10
12
F6
EE
01
11
EE
03
14
F7
EB
1D
AB
E9
19
FA
18
F0
D5
2C
0A
E5
F4
EC
E0
0A
DE
EB
F7
1D
1B
14
FC
F6
2B
3B
E5
26
1C
E9
D9
C2
00
FF
20
BD
20
17
C8
FE
27
1F
05
EB
F9
10
12
ED
09
FD
AB
1C
E1
F1
22
FC
F2
EE
24
DA
FE
08
FD
BC
F3
FF
FF
31
D5
EE
20
0B
DD
C9
20
03
D7
19
F0
ED
DA
F3
DD
E9
F2
19
AE
02
42
F6
05
AE
2B
FD
18
D7
F6
31
E0
D7
1B
0F
01
15
0C
F3
F8
13
25
0E
E5
D2
11
18
EF
22
F6
F8
0A
07
DB
F5
F2
EF
FC
D3
F9
14
FA
F9
06
E9
C8
3F
D6
F8
1A
D5
D8
1E
03
EB
3E
1D
F7
0E
E3
F3
27
14
24
D1
E3
E3
32
EB
FB
0D
28
F4
1C
BB
EE
2F
FC
F7
13
01
1D
F3
C1
EF
0A
C5
D0
1C
08
F5
D6
EE
01
0F
0F
FC
F3
ED
18
48
18
EE
FE
10
F2
CE
0A
FB
FF
07
ED
0B
E9
06
37
E3
FC
FF
03
D7
F7
04
DE
EE
E1
F6
DE
06
08
2A
E5
13
DC
1F
05
EA
FC
05
EA
0F
1B
20
1D
F1
EE
E0
E1
DB
12
03
E5
19
F8
08
DF
EA
52
0F
16
F6
E5
0B
BF
D9
17
12
FF
04
FE
C0
F2
FD
06
F2
04
ED
0E
35
F0
03
26
03
F4
24
08
FD
2A
ED
20
DB
FA
03
D9
BB
01
E7
E1
1A
06
0C
F8
04
D7
CC
B7
05
00
E5
32
ED
30
08
13
1B
08
F7
1B
08
DF
E4
E7
18
FE
E1
19
1E
DA
14
20
D1
F3
04
0F
25
25
F0
05
F7
C0
F8
AB
0C
ED
EF
21
0E
E7
1A
07
0C
DE
DF
CD
0F
16
0B
CC
EA
DC
D7
E1
FD
D9
14
C1
07
F2
D3
10
E8
04
F4
EF
E3
E1
F4
E6
1C
E3
E7
36
FE
BA
13
EB
0A
08
08
1D
15
C6
F1
EC
D8
E1
D0
F5
07
EF
12
D5
F9
C3
2F
0E
D4
FD
F3
1F
0C
1D
FF
22
EA
F2
09
EB
F4
FB
E9
EC
F7
DF
10
E8
F4
F6
07
09
1B
13
F2
0F
EC
03
C0
E9
0A
12
F4
E7
19
D8
1E
38
0D
09
EC
E0
24
22
09
F4
FF
DE
2F
00
F5
C6
DD
F4
0C
DB
01
29
F0
04
F6
1A
D4
26
E2
EC
26
0C
FF
06
05
31
03
E8
FB
15
15
09
03
FE
E2
45
12
94
03
EE
F7
0B
F3
C5
2A
13
0B
21
0E
EB
C4
E0
15
E8
0C
35
25
1F
0C
10
20
E7
1D
07
DB
13
16
FE
18
2B
1C
F2
FA
05
CC
F4
1C
FB
F9
D4
37
0C
F6
ED
FD
00
2D
FB
24
18
D6
F2
E6
1B
0B
0E
13
0A
D8
04
44
0C
07
02
F3
06
15
FC
20
FB
DA
FC
10
F6
0E
CD
26
FA
D9
1A
2C
05
EB
29
FE
E5
05
19
0D
09
C3
01
F1
FB
E6
02
15
F7
15
10
06
00
3B
F5
EE
E1
ED
0C
14
01
FD
00
E8
27
08
DB
16
31
F9
13
E2
08
FE
CB
DB
2C
3B
0F
19
F4
F1
FB
EE
FF
F5
0D
C7
F4
0C
F1
1E
19
1F
00
04
EF
0B
1C
28
F4
EF
15
09
03
F9
10
08
12
E3
F2
E2
DE
01
10
11
0F
16
17
15
26
F4
EA
1A
F9
11
F6
EA
06
04
E6
EA
14
0F
03
50
18
0B
09
FB
1B
F3
0B
25
1C
04
00
ED
FB
08
48
F9
29
D5
F9
FE
2F
26
0E
FA
0E
18
EF
02
0F
24
09
09
19
09
E9
0A
E8
FC
0C
E3
FE
3B
05
15
07
0B
0D
FA
E5
EB
0E
FD
0B
F8
28
F6
32
E1
04
14
FB
F8
58
F4
E3
0A
EE
C8
33
2F
2E
20
EB
E9
1C
E9
D6
46
FA
32
1E
ED
01
FE
03
0C
E2
11
10
16
EE
05
EE
E9
DF
43
F3
29
27
0A
37
ED
E9
D7
44
0B
F6
17
0D
AB
F0
11
18
13
EA
17
C4
1E
0C
25
14
D5
15
04
24
2D
0C
F3
D7
DC
29
F4
F6
15
0C
E5
FB
17
F7
2A
50
1C
BF
0D
EF
EA
19
0C
0C
EF
E0
25
6B
10
FF
05
F6
19
F2
EB
18
04
E9
E8
01
0A
D7
FE
09
09
DA
D2
D7
14
18
E7
FD
0F
26
D6
03
F0
B2
CB
AD
FF
F5
DE
14
E4
F4
FA
D9
F9
01
12
F2
F6
E4
EE
07
0E
ED
EE
04
FD
ED
F6
07
03
09
FA
23
F8
06
E5
FF
E7
04
EA
DD
15
F5
F0
FB
0A
22
0E
EE
D5
D8
C5
B6
0F
DE
27
F3
01
12
24
DE
D5
17
E9
EF
81
D7
C7
19
F9
17
C3
0B
CD
F1
01
F3
F8
F2
C6
1C
21
0B
1F
04
21
14
E8
DD
11
10
04
0D
C9
BE
28
05
F0
22
FB
FB
0D
ED
E7
0B
0A
FA
CD
F3
08
31
00
2C
15
09
03
EE
F1
08
0D
F1
EB
E6
E9
E2
0D
0E
E4
04
F1
21
0C
CD
CF
E5
0A
ED
C4
11
15
E1
17
2E
EF
F2
05
02
15
0C
F7
33
03
FB
DD
11
E6
E5
E5
17
18
CB
19
1F
E7
01
04
0E
EA
11
0F
04
0C
DB
1F
FD
FA
FE
EA
FC
2C
FD
DB
1A
2C
F7
13
0D
1B
13
11
27
E1
2A
F4
EF
0D
11
10
EC
E4
08
00
DD
1C
D9
DC
25
02
DE
1F
DA
12
3A
2D
0E
E9
0D
1A
12
0A
FF
F7
F1
0D
C9
24
EA
16
F2
04
2C
F5
1C
13
FC
03
23
0F
E8
F6
08
0C
03
0E
EC
E5
C4
CE
0A
E2
D6
2A
0B
FD
E0
06
F9
FB
F6
0F
3B
25
EC
08
04
2A
CE
06
5B
FA
EA
35
01
0D
00
E2
FA
F3
E3
17
34
17
15
B6
19
24
F1
25
05
03
46
ED
EF
F0
42
E7
CD
EC
3B
D5
C6
CE
E7
35
ED
E8
0A
25
C9
15
3A
E6
C5
3C
08
EE
16
FD
F9
BE
1E
FD
1F
07
00
24
26
E0
9D
0B
E9
E8
1C
FC
D4
E5
0E
FF
10
0C
E4
03
FD
11
E7
08
4E
E1
06
0C
FA
04
F7
22
1B
FC
C7
18
2A
2E
FA
CB
22
E7
ED
EF
0B
0B
EF
F5
06
E5
F0
0F
13
08
E5
A5
F9
11
FE
DE
0F
18
05
F7
FF
1C
FA
F4
F8
10
D5
F7
04
F1
F5
C0
D7
F3
26
FB
12
EC
F2
FC
18
22
0D
D6
07
02
EF
DD
04
13
2E
FC
E9
F3
FA
09
CB
F0
16
FA
10
27
32
0E
CF
10
1C
F9
FD
1D
FB
27
FD
E0
18
0A
E5
E4
07
FB
DF
0E
1A
16
07
F1
F3
EB
08
EC
EF
0E
08
27
E3
2D
F7
D7
28
1F
CE
0B
12
EA
19
E5
D9
34
07
CE
EC
F7
EF
02
16
D9
2A
FF
07
EE
1F
10
43
F0
EC
CA
1F
C9
BC
28
B2
24
EA
0E
FD
0F
CD
18
CD
FC
04
07
D0
16
FD
05
E9
F8
1B
EE
F0
C0
08
03
F3
13
0A
FB
D7
0B
D5
39
01
F2
FE
FE
21
D9
23
E4
E6
F0
D6
2E
10
E2
34
00
F4
06
0F
28
DA
00
F4
04
1A
07
D8
18
F2
EB
22
25
E4
09
CB
05
00
E6
EE
FF
07
16
E4
F5
07
FE
0A
E2
1A
FE
24
10
03
E9
E2
D1
F3
0A
E1
DD
F8
03
E1
FF
C2
D8
12
01
FF
E3
06
DF
0A
24
F8
0E
0C
FD
16
F5
D6
02
EF
E0
22
16
EE
E9
FF
0F
05
17
EA
16
0A
F8
19
0C
0F
1A
0E
FB
FC
F5
C2
18
0D
0E
20
1B
0A
11
E8
0F
FB
05
E2
05
CD
04
F8
05
E4
EE
16
E1
F4
FA
DF
06
FA
0C
08
0B
0A
17
26
1C
F8
01
0E
F4
F9
ED
E7
ED
F4
E3
EC
06
1C
37
0E
03
FD
1A
23
05
C9
FE
FA
05
FB
E6
03
05
13
CD
F8
FC
07
EC
F0
0A
11
0D
04
03
F3
FF
FF
C4
EF
0D
04
D3
E6
E6
07
00
05
F5
FA
FD
0D
FB
15
13
FD
01
10
FC
1A
06
E3
F9
CD
F6
F8
14
07
04
27
1B
24
04
F6
0D
54
00
CF
0C
FB
F7
1B
E3
E8
14
20
19
FE
FC
EA
FB
16
E7
04
04
FD
EF
F1
06
E8
E2
D3
13
F9
11
1B
11
F2
16
F5
22
F1
D5
06
04
FA
D7
DA
EA
46
0A
F2
20
03
E0
1A
12
04
C3
26
03
C2
C8
F5
04
13
E0
F8
BE
04
37
14
02
F5
CE
EC
F5
18
15
16
47
FA
BA
17
1B
1D
EA
DB
0C
21
F8
DD
F1
1F
F0
DD
0C
1A
18
F4
DF
2C
1C
0C
0E
F3
22
F7
F7
FC
15
FB
01
0C
08
14
FE
14
F8
0F
F0
FD
30
F0
EF
07
03
FC
11
16
EE
0B
FF
03
44
0C
F0
15
04
D4
EE
2E
34
01
FE
E9
F0
08
24
24
06
C7
E5
07
F1
F8
06
04
C4
FD
0B
F3
FC
0E
E0
F7
E2
2F
F9
DB
02
F5
F9
14
2B
0E
0E
02
F4
19
0F
1A
ED
F2
E4
34
0C
20
13
E9
FC
F6
ED
F6
16
1E
FD
F8
F0
20
EF
FA
02
0E
F0
13
18
FC
F2
F9
EC
05
2F
1A
03
0F
18
04
FC
12
0C
DA
0D
FC
21
08
F8
1B
E1
0C
1B
14
32
17
29
2D
01
D6
F4
F9
FD
15
00
DE
00
01
08
15
06
0F
F4
05
05
09
F5
EA
F5
13
FA
F4
0F
0E
12
FE
16
0C
01
0E
02
FA
EA
EE
05
0C
08
0B
F4
12
0F
FA
0C
0D
FF
13
FA
E9
F2
0C
FF
15
FF
EA
03
36
FF
39
F9
F0
1B
E2
25
10
37
FD
0E
E6
F5
C7
E6
23
E7
03
02
F6
29
01
F6
F7
02
0C
FC
1C
EC
C9
F4
2C
DF
ED
D5
EA
18
DE
E0
0C
F4
C9
F2
EA
F1
14
00
E5
17
18
3C
F8
CE
F4
FE
36
D2
DE
03
0A
14
2E
DD
0F
DA
F6
22
FA
07
1C
1C
0C
02
FB
2C
1F
29
DF
E3
FC
FC
14
2D
E3
C1
EC
0D
0E
13
26
00
22
F6
FB
0D
28
06
11
1F
FA
13
03
EC
F2
17
19
00
FC
F6
F6
F2
FF
EA
F5
02
14
0D
1D
3B
FB
02
FF
A5
E1
CB
01
DD
DC
F4
F0
F5
0C
1F
20
08
FC
04
DE
EC
F7
04
05
25
30
28
2E
E0
CC
BA
14
FA
EF
17
1B
33
07
04
FF
2F
37
3B
F2
FA
FD
08
02
F5
03
10
F5
06
02
18
EC
01
F3
06
0B
05
25
1C
14
01
FA
EF
B9
C5
D9
EB
F4
F8
EF
EF
28
E6
FE
E1
06
1D
2C
D7
ED
FF
E9
FB
08
FE
F9
01
0A
DA
EF
2F
FE
FF
FC
ED
11
02
05
F9
BC
F3
27
11
18
2B
E8
0D
0E
E7
04
13
14
F2
E9
FD
0C
DD
27
FC
F0
C5
02
19
D1
E6
05
15
1A
0A
E7
1C
F9
24
15
FD
01
DD
E7
01
E3
0C
D3
01
FE
FA
FD
0A
F0
0F
33
F8
F8
ED
F9
08
21
E1
E3
01
20
0C
D5
FE
C2
F5
10
F9
ED
1B
F5
C6
09
EA
01
35
FB
F8
FC
00
D0
28
F7
EF
D1
F8
EC
D4
FA
20
CA
06
0F
E7
01
F8
2F
FD
D0
C6
E6
C5
FB
F1
E4
07
ED
E4
FA
F7
DA
FC
E3
FD
E0
0C
01
0D
10
E7
C3
F4
05
E9
04
EB
48
F9
E9
0F
01
D4
BE
15
36
4C
0B
B3
07
02
03
B6
FC
F0
07
EE
08
31
DC
E2
15
EB
F0
DF
0B
11
F6
FC
DD
CA
08
0E
0F
01
E4
F6
1F
0B
DF
FA
E1
04
FB
E8
0B
02
EA
E9
EE
01
08
1F
03
21
03
FF
0A
1C
FF
19
EE
D4
EC
EF
07
10
F5
D0
DD
06
F3
06
04
EE
19
00
E7
E9
FA
E5
09
0E
EA
C6
F0
EB
E0
F1
00
EE
EE
E4
ED
F7
FC
17
0C
ED
F5
07
FA
FA
F3
0A
1B
09
E8
15
F1
F3
F2
E2
E1
01
0A
EB
08
08
FA
ED
08
EE
08
F4
C8
FE
10
04
EE
09
02
F9
F4
F4
CA
FF
26
10
FE
10
F8
14
F8
23
04
FC
11
11
3C
2F
FD
0A
11
FC
00
E4
F0
11
F9
22
0F
EE
01
17
81
05
BF
EA
E4
F7
0F
01
08
0E
E1
23
FC
F3
2A
05
FF
D5
DF
04
EC
04
04
12
D9
0C
EE
09
F8
0B
0E
F0
E8
DA
20
03
01
09
FE
DD
EC
00
EB
F2
E0
13
E4
0A
04
0D
D7
07
0D
09
FF
F8
1C
02
1C
FA
00
1F
14
DC
14
25
D2
05
03
D3
FB
09
E6
FC
36
DD
FE
9B
09
F8
C6
16
08
E3
04
0F
D1
EB
2A
F5
DA
ED
37
1C
12
DA
EF
14
DB
F8
EC
24
F8
14
2A
12
19
29
21
FF
D6
E6
FC
F9
28
F9
1B
F8
06
2F
B8
CA
08
04
05
08
4C
F3
E6
E2
E4
1E
11
F2
0F
15
06
0D
02
0F
17
BC
1C
11
EF
04
17
19
E7
F8
E7
28
F8
12
FD
FA
16
26
F4
1F
DA
F0
47
E9
ED
44
03
CB
EB
02
EE
42
DC
CE
04
02
18
FC
23
EF
CF
03
0B
FD
F5
DA
38
03
EA
06
1F
D7
2F
05
CB
F3
08
E5
20
1C
F2
AB
F2
4B
D5
0D
D9
26
E2
D4
CB
F4
1A
18
15
E9
2B
D0
D4
2F
E8
F8
C3
22
24
1C
E3
FD
05
13
0B
F1
0E
02
EA
21
17
37
DE
C7
26
EE
EC
FE
0B
14
3E
1F
C8
DD
10
12
10
09
D6
4C
04
C6
19
FE
F1
26
1D
02
1C
E6
CF
26
08
0F
DC
F1
1D
DC
F1
37
00
0B
F2
FF
0F
28
43
07
E3
DC
01
21
04
18
15
17
1C
CC
1F
07
D3
EC
F0
B5
F2
10
31
16
10
F8
A9
06
05
D5
0A
E0
20
22
E6
27
25
FC
DD
07
23
30
25
C8
0F
0F
F4
E1
FB
FD
F3
FE
D4
33
03
FA
2F
F3
F3
00
17
12
14
24
E3
E4
09
28
10
FF
EA
F0
01
0C
10
0F
F0
C5
E7
F4
19
1C
FF
16
01
08
EA
12
EB
F7
F8
CF
00
EE
1C
2E
11
0D
05
DB
09
FC
19
EE
22
FF
F9
FE
F4
1B
3B
08
05
20
FE
F9
E3
03
C8
08
FE
2A
E9
1D
0F
07
EA
04
1E
EB
FB
F3
ED
FD
E8
14
10
10
FB
E2
FB
EB
04
E5
05
F1
05
1C
11
EF
ED
E6
D4
05
E4
1D
F5
FE
0D
11
CC
FA
01
F1
