21
1B
F2
E9
F7
08
25
F8
E3
F4
FF
2A
E0
E7
08
11
FA
19
1F
11
00
F5
11
E4
11
E9
E7
ED
D6
FE
C7
FF
13
10
2B
13
F6
02
E4
D2
03
FE
E7
F0
A2
24
DB
15
F1
09
C0
14
0D
EF
F0
11
19
DB
07
E1
D5
CF
EF
C0
01
F6
D6
1F
E1
00
31
00
F7
E8
0D
06
ED
DA
EA
0C
02
1F
1B
04
1A
00
C6
F0
24
CD
CA
DE
0E
F4
0B
17
04
E6
20
F4
F9
FD
B6
F5
F0
FF
02
0F
D8
17
01
28
25
F8
24
02
E5
0A
E4
FE
E3
F2
F5
1E
F6
01
0F
F7
F9
D7
F0
FA
FA
03
19
C4
FA
FB
02
F6
15
FC
F9
39
ED
E3
05
11
18
0E
16
10
0E
ED
EE
F7
04
BE
E6
ED
ED
3F
09
FD
12
14
EB
08
0E
E4
1E
1B
08
02
FE
E4
EA
F9
FC
2C
F3
FA
CF
A8
BC
4C
B1
EA
FC
F8
E6
24
F5
FD
11
3B
00
E2
ED
39
03
F3
0A
D9
E0
EF
00
E8
FA
2B
EF
06
37
EF
18
0D
10
F2
0A
1B
16
1B
05
DE
EE
D3
E7
E7
F0
00
E7
01
1B
21
E1
F4
CB
35
00
0E
F5
FE
0A
DC
17
FA
0E
07
FD
09
F0
F4
40
11
01
E4
02
08
1C
09
28
0F
16
E2
38
EE
D9
0A
FC
16
18
FD
25
19
03
04
39
24
EC
EA
02
03
F2
02
FD
FC
F0
18
FF
F6
D0
02
E8
12
03
26
14
00
F3
04
02
14
28
FF
03
07
11
60
C5
03
30
CE
1E
E9
1F
D6
F3
03
EF
23
41
F2
10
9D
36
01
06
05
1B
1C
00
F2
FD
F0
DA
1B
F7
17
E1
F7
F3
F3
01
1B
D4
0B
0D
03
F6
08
D6
C8
F2
FD
10
FC
F3
19
06
07
27
EA
18
B2
FB
C0
0F
28
CD
FB
FE
0F
CB
C1
27
34
FE
E3
EE
FE
09
12
04
0D
04
10
22
FA
06
05
03
2C
C3
04
F1
07
EA
00
C9
0C
27
01
06
57
1B
01
FB
00
14
21
35
BA
00
DD
F3
1B
1B
12
ED
C4
E4
21
E8
04
F0
E3
0F
F2
E6
F9
00
01
D4
EE
28
04
0A
18
E7
D9
BB
F4
FE
2B
00
11
F9
F2
2E
02
E4
F5
FD
F8
1D
CA
0D
ED
10
EA
13
FF
0E
D1
FC
02
BD
14
15
0A
46
CF
D0
FF
E1
0C
2D
F9
06
F7
E1
DD
13
C6
06
1D
50
FF
02
03
17
46
FD
E6
DE
36
F2
F7
04
F2
06
D9
E0
28
E7
F8
F9
F1
EC
00
C0
09
F3
D2
0B
F1
FF
FC
F8
B7
F6
CB
F8
0E
28
13
25
E7
21
FE
1D
3C
00
13
14
CD
CB
E9
11
F7
CE
13
1D
D6
10
BF
E3
20
FC
CE
BC
8A
CE
25
F1
14
0A
09
F7
0F
1D
04
02
CE
09
0C
3C
1D
17
3B
13
FB
DD
E2
E8
CB
F1
F9
FD
EB
E5
01
1A
0F
D7
EE
D1
E9
10
ED
04
02
FE
17
ED
0F
10
FE
FB
F9
17
F5
E5
18
1C
19
09
01
01
E1
0B
1C
00
19
17
1C
F9
D5
C0
D5
D2
25
01
D6
11
07
01
F4
08
F7
FF
09
1C
EA
03
04
02
EA
F4
0E
FF
21
2C
FC
D8
19
0E
26
FD
F6
ED
22
0E
3E
0F
F1
00
18
D5
F5
FF
EE
DF
1D
01
0B
1C
1A
2A
31
00
06
31
34
03
FF
26
1C
B6
05
05
E6
17
08
E1
1E
0F
16
06
E1
1C
F5
D6
24
14
E7
24
14
E6
3F
0E
44
09
08
48
17
29
06
E7
F4
E4
F2
06
08
E3
E6
1A
2A
20
C5
07
D4
E8
EF
DC
F1
1B
20
39
05
20
1A
37
FE
3A
37
24
D3
C9
D3
0F
DD
E2
4E
16
06
09
F0
0C
12
15
F5
C4
E7
E4
C7
1B
E0
33
06
E7
A9
1F
FC
2F
0D
E6
F3
F4
11
DD
DD
07
AF
42
08
DE
24
FE
DB
24
FE
12
14
E7
27
D4
E0
09
D3
18
14
F3
CE
0E
F3
E0
1C
E6
CC
0E
E3
FB
EE
FE
15
D4
23
24
D6
14
ED
A2
BE
F9
AE
45
14
D2
1F
08
E2
08
16
E4
CF
F2
34
02
14
C3
3A
E1
02
1C
1A
D4
06
0D
01
C0
0A
08
42
02
1A
DB
F8
1F
20
19
D3
DE
04
0A
3B
23
1B
2A
03
0A
0E
17
E1
15
27
11
B3
0F
29
12
F3
3A
F1
F1
C8
19
E9
D2
21
F0
D1
E7
F4
FD
D9
D3
FD
EB
F0
0F
44
14
EE
EB
FC
B4
0C
01
D5
A0
EF
17
F5
1E
FC
F6
08
0D
1D
19
F8
FD
FC
E6
F7
0C
15
CC
F7
3C
15
04
2F
15
4F
15
F5
23
EF
F8
E4
1E
F4
19
14
D2
24
06
08
F9
DC
F5
23
F3
F6
32
78
1A
E2
CC
09
F4
39
1D
1A
F1
03
1E
F7
F3
18
ED
AE
05
31
F7
BC
0B
D3
0A
11
E4
17
27
D3
F9
20
06
FA
0C
F7
17
EF
E0
C6
B5
E6
01
FC
FC
0D
31
F0
F1
C9
17
18
C5
17
29
F9
10
EF
EA
CA
04
CD
15
1C
E9
17
21
E2
09
0B
CB
FD
0D
1A
BA
F7
FE
FD
F8
F3
19
DD
01
34
13
CB
EC
FD
1E
0C
0E
E4
F5
1C
F6
FF
DF
E3
C2
DA
F1
E5
02
B0
02
F8
04
F1
07
CA
FC
07
E6
16
12
27
12
00
1F
0A
06
1F
22
04
DD
0B
00
C7
FC
D7
EB
01
F3
10
F7
DE
EE
00
FD
06
3D
FF
C6
22
23
EF
11
0E
09
11
F6
19
11
EA
10
0B
01
29
F5
F1
0F
F5
11
F4
DB
FA
07
FF
ED
03
FA
00
0B
09
31
10
19
1B
32
BF
FE
05
06
05
01
F9
E8
0A
01
E7
28
24
22
1C
0B
08
14
24
06
39
FF
FC
E8
02
09
07
E4
00
12
1C
ED
07
14
D3
38
0D
FF
04
29
26
41
D7
DD
A3
DE
EA
D1
4D
1B
CF
A4
D5
EA
06
F7
F8
1C
ED
07
3C
01
08
F2
0F
08
46
F9
FC
FB
DB
0F
F5
29
0D
0A
FD
24
07
F7
DB
04
FE
E8
21
44
19
09
DF
F6
FA
0F
01
14
F2
00
06
BB
FB
01
0E
2B
09
FC
1C
1F
F5
E6
F6
DC
20
C8
F7
E9
57
FC
0E
14
D8
DD
E9
E6
DD
EB
E2
E2
0F
EE
DE
03
FD
F4
1C
0B
C0
1C
29
E4
05
12
FC
0B
EC
E2
DA
F9
17
1B
17
E0
09
FB
F9
2C
F8
0B
F4
F5
0B
E7
25
06
FC
1C
3F
0D
1B
14
14
E8
EE
07
FC
EF
01
F2
02
F3
0E
FB
23
0A
10
EE
FB
0A
07
01
EF
07
1F
3E
07
39
11
21
FD
F9
EF
F1
DE
1E
F8
25
D4
0C
18
18
E6
E1
FB
26
3D
F0
D0
DF
F1
13
30
EB
9E
D3
0B
FC
D3
09
14
00
F0
21
E6
08
F7
0F
7B
18
BC
3C
D2
DD
00
08
11
C5
23
ED
03
EB
08
ED
DD
F0
09
33
F6
06
DD
54
13
E1
EE
23
1A
17
DF
35
41
A4
31
31
08
F9
95
1C
F4
1F
06
26
12
21
FF
F9
0A
E5
0F
C5
2E
02
09
D2
28
CD
40
E3
F6
0F
2D
A8
04
D6
E9
CC
51
D3
FE
20
BA
01
32
16
BF
0B
F1
C0
A7
E9
F9
16
F4
E6
1C
E1
1C
EF
FE
FD
DD
0D
0D
13
C2
04
23
FA
0F
F5
0C
E8
E7
F6
F7
E5
37
2D
1F
16
F1
1A
EC
DD
17
02
FB
06
FE
FD
19
F5
0F
D8
37
11
1A
CF
EA
F2
D1
EF
FF
03
CB
EF
F5
EB
13
1B
05
18
F9
05
00
03
FE
FB
DB
D5
E2
24
0F
01
C0
FB
FD
17
0B
DD
F6
0F
15
EB
E7
A1
05
25
31
F9
FA
06
F4
FB
DE
EB
13
17
2D
E9
0E
A9
08
F1
1A
FE
06
E1
2D
F5
1C
06
B4
2A
E7
2B
E7
06
0D
FC
F0
08
0D
1C
1C
CF
F3
D5
E3
FD
0D
E8
1F
F3
BE
12
EF
E9
EF
35
39
08
14
EC
DC
EC
E1
D7
18
E9
27
38
F3
EF
09
1C
FE
11
D4
F3
3A
F8
E4
38
E4
14
2A
06
13
0D
C2
36
21
26
F2
10
BA
01
FC
46
F6
01
0C
FB
27
C8
CF
A3
C9
19
47
F9
DD
09
FF
F3
12
03
F3
16
F8
0B
F9
11
FF
E7
CD
FB
1B
0F
01
18
05
08
1F
01
03
E3
1E
0A
E0
15
07
FB
C9
2B
F6
DA
1C
F6
0F
FA
1A
0E
F6
F1
06
02
CA
F6
14
0E
F4
07
0D
1C
19
FE
0C
01
15
FB
2B
F6
D5
E2
ED
00
F4
FC
34
00
0D
D7
0B
DE
0C
11
0C
19
20
25
12
0D
DB
CE
F4
CF
36
11
E0
C3
D4
FB
05
0A
0A
02
04
F5
FB
06
13
14
2F
FD
38
19
1C
ED
30
4F
C0
1D
EB
E2
F8
E4
1E
1F
ED
E1
DC
01
DC
0D
D5
D5
F9
56
23
D8
88
F9
20
19
3D
F6
2E
0B
EB
E3
D6
37
4B
0A
F4
FB
ED
C3
05
17
F6
FE
00
32
26
16
F3
1E
F0
E1
F2
0B
08
F0
FE
D9
1B
0E
49
3D
16
EF
EC
10
27
EA
16
FB
20
10
07
D6
F6
1B
41
CA
DE
F7
F1
0B
11
17
FD
EF
3A
F0
F6
B4
11
03
15
12
12
13
FF
FB
15
1D
13
26
FD
E8
F2
E2
00
E5
11
30
05
F3
E7
F2
FB
F3
0F
01
F9
F1
13
03
F5
EA
37
04
30
0F
15
F4
F6
AC
EA
D5
DC
0A
0A
F1
F2
F0
18
FE
01
0C
11
1E
01
F1
F1
CF
10
2B
CE
DF
F0
10
FB
FC
D3
D4
CB
27
27
19
C9
FE
00
1B
0E
27
C6
EB
FB
BF
10
F8
E2
F0
12
1F
E1
FB
D4
FF
03
E4
E7
01
00
F0
FC
D0
FE
02
06
1E
46
F6
F8
25
0A
10
06
BE
F3
00
14
DF
FD
D9
CC
02
50
0E
29
0B
06
AE
BC
EF
E0
21
0D
1A
11
0D
F0
E1
0E
2E
2C
10
1C
DC
C4
D3
ED
21
CE
CC
D2
EC
09
ED
02
DC
F9
CC
AD
DA
D3
E0
C7
F4
0E
D4
BD
EB
15
1F
18
06
C1
F6
18
41
EC
0C
D1
25
06
FC
BC
17
D4
13
C3
09
37
FE
D1
F8
0D
06
28
16
FA
07
FF
F7
0F
FD
10
EF
EA
F0
0A
FA
0F
F9
06
06
0E
07
F4
FD
05
1C
BB
C5
0F
38
2E
16
15
08
05
2F
23
C2
D6
07
DD
E1
04
0A
FB
05
BE
F4
FC
FA
EE
0D
00
17
12
0E
EA
E6
F4
13
10
17
1E
04
D9
DF
DC
E5
E7
05
23
00
11
E9
0C
ED
D7
29
22
F8
0C
FE
06
0F
43
44
0E
0C
1C
26
EF
0A
EF
08
16
EA
36
F1
20
12
12
07
04
DD
F5
F4
1B
17
E7
13
09
08
EC
41
FF
13
AB
DE
12
E0
03
01
0E
17
CA
F0
FE
F0
DE
0F
EF
17
FC
07
EF
BE
06
FC
2C
33
09
01
F2
EB
34
F9
23
0B
EC
D8
FC
E7
00
16
ED
FE
30
13
34
2E
02
F9
04
D2
04
DA
09
E1
EE
2B
1F
20
09
07
E9
D6
FD
EF
E2
D0
D5
FF
16
1C
2C
13
03
30
45
37
EA
42
F4
3B
F4
2A
33
C5
FD
F3
31
28
1C
15
01
DA
E3
F9
F3
F1
0E
10
29
09
4D
18
0F
F2
D4
DE
F9
40
F7
0D
F9
07
0E
FA
F1
13
C2
FE
0A
1A
03
16
F9
11
13
20
08
E6
E6
C7
C2
F9
DF
F1
27
11
14
06
17
34
FA
20
38
D4
E3
0A
0A
F6
10
13
FA
E8
0A
10
2C
DF
02
FB
0A
02
08
CD
CB
E8
29
27
2F
CB
1A
F1
11
10
FF
E2
3C
FE
E9
F0
E9
25
04
C4
E3
05
D6
32
0E
F2
E4
D3
0B
FF
EF
F3
06
EE
E7
32
EF
ED
F8
FF
0F
31
35
CE
D5
FD
F8
09
D7
FC
0B
ED
DC
2A
01
E9
F2
03
2D
FE
18
F9
E9
17
B0
EE
01
EC
F4
FE
CA
D0
EE
18
E7
1A
14
0C
EE
EC
E5
F6
E0
05
E7
12
12
23
FA
09
E5
D2
D9
1D
E3
0D
C3
B3
E1
15
F6
07
1C
0F
19
01
07
FB
E7
04
FA
07
FB
F0
09
12
07
0E
40
F0
11
02
29
0B
0C
06
F2
B4
1D
FE
34
C6
ED
1C
19
0F
EF
0D
DD
FF
0A
0E
E9
F0
07
04
E3
08
1D
19
F6
F2
FC
01
E5
05
FD
EA
19
11
1E
06
05
ED
FE
EC
E6
F9
EB
AD
DD
EF
F8
CC
FD
36
16
17
04
13
04
ED
F3
DD
F0
06
E8
DD
F7
00
05
11
0C
50
F7
F9
CB
0D
03
13
EF
EA
EC
0B
E0
16
22
F4
2A
19
13
F5
E9
DD
D2
11
1B
15
09
11
E1
EA
0A
2A
E2
05
E6
E0
F2
E5
F0
E5
DE
FA
0E
FC
FE
1C
0A
FB
EE
2F
11
0E
E7
EE
03
DC
F1
FE
03
EF
00
1C
F9
FF
08
E0
03
01
03
08
28
E4
24
0E
EF
0D
34
F8
E9
05
CB
DD
BC
27
09
14
FB
07
1B
0C
1F
11
FB
07
15
E9
0B
BB
DA
06
0F
DE
FB
F2
40
F9
16
EA
16
1B
E0
0D
04
0F
03
11
EA
39
01
38
09
E7
37
F4
A0
0D
1C
E9
03
ED
12
26
DF
F3
0F
FA
3A
F4
E1
2E
08
FF
F9
09
C2
F2
FA
26
11
B9
0A
FB
E6
E6
FA
0B
ED
0C
22
FC
CF
1C
0D
E7
F3
03
12
1B
1D
11
0F
E6
28
12
F4
F1
BB
0B
1D
26
27
A6
E1
D7
35
1E
E3
A6
F1
F8
F8
AD
03
18
28
F9
16
D4
9C
F3
A7
22
D2
EF
38
FE
EB
DA
E9
15
D5
1F
02
02
32
EF
27
1D
01
C8
0B
FE
ED
ED
B0
DF
19
BB
2A
1D
29
CB
C8
22
1C
08
12
09
EA
E6
F6
D8
FE
04
F8
08
CA
F5
F8
F4
0A
A8
19
EC
E6
0F
BF
0A
06
F7
2A
D4
04
37
14
1F
13
E9
B0
B3
EE
1F
FD
03
06
FF
EF
F9
F9
41
2A
D8
22
45
37
B8
E4
11
FD
29
0C
00
1A
F5
1A
09
F2
CC
F0
E2
EA
ED
FD
04
EA
FC
08
ED
0F
04
D6
EC
04
FE
05
18
D6
02
0A
1C
DA
DF
EC
10
04
DC
E4
FD
E4
DF
E8
D7
D4
06
F6
E0
20
D5
09
C9
26
E5
0B
16
FF
25
D9
E7
E1
0E
27
04
F7
F0
E5
11
09
01
EF
DF
0E
DC
C9
D0
F0
1E
F0
0D
ED
FF
09
F2
15
16
DD
F7
DB
E3
F8
FA
E6
13
29
C4
D3
06
C7
FC
F2
DF
0C
27
EA
DE
F7
1B
BB
1B
12
E0
03
02
1E
1E
E3
F6
13
0A
0C
E8
F6
FD
D0
D7
F4
DD
C4
C8
EA
1F
07
FF
22
0E
0B
17
09
33
06
F1
F2
F5
CF
1B
DD
FB
F5
DD
D8
D2
D9
F6
F9
2B
FC
FA
1C
1C
17
26
EF
14
CC
FB
EA
11
C3
03
7F
1F
01
13
12
0F
0E
06
E6
23
20
10
26
E7
E4
09
FA
1F
0C
E1
F0
F9
1A
D1
42
0D
01
11
15
0F
F3
FB
34
07
2D
10
EF
06
07
DF
23
C3
E8
0A
C6
FD
EE
E4
C4
29
1B
D5
14
07
00
EC
E6
04
0A
E2
C7
1C
F3
0F
15
17
35
E7
EB
DA
F9
BC
C1
02
2B
C6
1E
04
17
F8
C8
E7
0F
23
06
EE
DD
10
1A
C4
D6
EF
D8
17
20
D6
3B
F3
00
03
31
D6
F3
DB
15
1A
20
FD
2F
1B
2F
E4
F6
CB
1F
F4
DD
C2
FC
E8
35
E8
02
