29
07
EC
26
FD
17
FB
3C
1C
EF
10
FA
EE
0A
02
12
0C
F3
E6
12
1B
FF
F2
F0
F7
CC
D8
11
13
FC
E4
FC
D0
F9
01
E5
B6
BE
12
07
02
EA
13
00
12
FF
06
03
07
D0
C1
ED
ED
07
F5
E0
FC
F7
FD
DC
07
05
0B
1D
15
DA
01
11
C8
F5
FC
F6
19
00
DB
FE
10
E0
26
FB
F0
16
1C
17
13
F2
F3
FE
1F
FA
F7
F5
19
19
FE
11
1B
EB
FA
F9
DC
CC
24
EF
23
17
F9
DF
ED
00
F0
D5
F1
25
CD
D3
DC
08
ED
1A
DB
FF
16
0E
F3
F8
F7
DC
F0
D8
B5
D7
F7
F7
E8
D6
E8
B4
0B
0C
1A
30
2D
10
EC
DC
01
08
F2
C8
14
08
CB
D9
E5
F6
DA
F6
11
F9
0A
1A
F5
F5
FB
C1
E7
C5
08
09
FE
0E
0F
07
F5
E0
22
00
DC
FE
E0
0C
1F
F5
FC
FF
22
FF
F5
FE
D4
22
0D
13
13
10
FD
20
1F
0A
FB
05
FD
19
04
F4
F3
11
0A
D6
CF
EF
ED
D9
EA
F9
0E
00
2E
14
0D
03
D2
0A
06
E7
EA
01
F9
0E
2F
DC
E4
13
1B
06
22
DF
ED
10
F2
EA
E9
01
0B
07
E2
EA
0D
F9
11
FD
F7
F0
E6
F7
0B
EA
14
04
D2
06
00
E7
EF
FA
FD
03
E4
0B
F7
C9
DF
19
08
24
1B
06
02
0D
DF
CF
FD
F5
08
33
EF
12
28
E7
C5
16
EF
E2
29
2D
FF
0C
09
04
2E
34
17
1C
3C
16
18
22
17
01
E4
3A
F6
03
22
18
FD
03
1D
F2
F5
CE
0B
CE
E3
0B
10
23
0A
01
EE
0C
20
F2
00
FD
F4
B5
ED
0A
FC
FB
E5
03
07
18
0A
0C
F9
14
2B
22
40
36
3A
17
FF
1B
30
F5
0E
26
F4
08
E8
EF
FF
37
12
1A
0C
27
07
FB
EF
0F
0D
08
C6
03
E1
DE
03
10
CE
E7
CC
02
0A
22
EF
FA
F8
22
34
0C
FA
BE
DC
D7
D9
C6
26
0E
A3
44
18
18
12
0E
0B
1D
08
18
F7
0C
03
07
D8
E2
CB
F5
10
D7
E8
0D
C8
02
1C
F5
1A
0A
E6
03
18
33
F4
EF
FF
0E
07
1C
30
EB
25
2D
DE
0B
F8
E4
13
B8
DF
F6
F8
D6
F9
F0
07
05
24
02
E4
F7
14
03
31
08
EA
D4
D5
E4
0C
02
F9
06
E3
DC
F9
B0
E4
1F
04
15
17
07
D4
F9
F8
F6
F5
CD
BA
C5
F0
DD
FE
05
08
FF
06
0F
02
E2
3A
55
F2
F4
08
EC
2C
19
EA
0F
1D
F9
04
FC
E0
FB
0F
EB
F2
FD
F7
0E
23
07
05
0D
01
13
0A
2B
22
F6
B0
E5
D2
E8
D8
DF
FD
12
14
12
06
02
00
01
E9
EF
12
09
D8
DA
DF
10
20
E9
C7
19
37
21
16
0E
EA
E2
EF
F7
F2
03
FA
17
2B
E9
11
15
20
0B
CF
F7
15
0D
02
14
E3
B7
09
CF
DD
01
CA
2E
DE
F4
D2
1D
15
E1
0F
AD
11
06
E6
E4
31
12
BF
16
1B
30
1F
E7
E1
05
FA
BB
04
F7
FE
D6
05
12
C8
DC
11
24
F7
06
DD
ED
CF
C2
E9
EA
ED
E7
E0
F7
20
E4
03
DC
12
F5
0D
DA
FA
2C
18
D7
DB
13
20
E6
CF
DE
0B
FC
EA
3A
FA
E7
E2
EB
1F
FD
F9
FB
08
24
E1
F3
E3
F3
FB
21
18
FC
01
EF
0F
04
F1
EC
04
D7
D3
05
0F
EC
D8
0D
09
0D
FB
F7
F2
03
0A
07
EE
E2
02
0E
22
1A
1E
0E
23
F7
09
08
03
06
0A
0D
00
EC
FB
13
2F
EC
0A
FC
0E
05
24
F1
FE
09
EA
E5
D6
0D
05
FD
E5
DF
F0
FD
EF
0D
0C
F4
05
F6
ED
E5
F9
05
F7
20
1F
FC
E9
E0
F2
0F
06
D6
1C
12
F6
12
EF
FE
D1
1D
27
E4
D6
1F
09
1B
03
F4
03
27
CF
E9
FF
F9
C6
C2
2E
06
E7
F6
F9
E1
FA
E1
D6
09
FC
1D
05
07
FC
1A
02
F9
04
23
06
DE
FA
19
FE
02
1C
16
D7
14
20
E3
F3
00
B3
06
E7
E7
10
08
08
1E
04
E6
CE
DF
0A
12
D9
29
2A
0E
14
FA
0B
27
1C
39
16
D6
F7
00
1F
AA
89
ED
11
FB
18
05
D9
20
0E
E5
02
CD
E8
FF
B6
E5
1E
ED
0F
0E
D3
F1
E2
23
CB
FE
FC
1F
05
F5
F2
FE
2E
07
DD
F8
EE
F3
FF
F4
1A
18
F7
1F
EF
08
1A
FF
0C
06
22
F8
0C
FE
FC
EC
DD
1D
0A
FB
09
E2
BF
2B
12
00
E4
1A
21
08
02
C8
09
01
E0
10
E6
EF
FC
04
E4
10
41
20
09
06
DF
20
1D
EE
EB
ED
D0
E8
06
20
01
00
41
F7
F9
E6
EB
0E
25
EC
09
F2
09
02
1B
20
02
12
09
E9
33
01
12
1E
1D
E6
1E
04
0C
23
FA
E7
FC
F6
FF
C8
15
1B
04
3F
EF
3E
F8
0B
16
22
19
01
1A
2A
1D
1D
0A
01
ED
09
06
0C
F5
EB
E3
E8
E6
D8
15
DD
E5
19
0A
EC
F1
29
03
07
F2
BF
C0
DF
E5
D2
DD
D0
F6
F3
10
E8
01
E7
FA
EF
1D
D1
E9
FF
E9
C5
FE
B7
30
34
0D
0B
F2
FC
D8
EE
EC
E8
FB
C3
F7
F5
D6
E5
23
10
14
01
01
02
18
15
09
02
E8
D2
14
03
12
CF
09
EB
D8
D1
E0
E4
21
0C
E1
1A
ED
FC
E3
0D
07
CB
04
F2
E9
10
13
EB
F5
0D
28
13
15
12
06
DC
DB
03
1A
09
1F
3C
0B
0E
2E
24
C3
0E
2E
06
EF
F0
DC
FE
F2
08
FE
05
06
FA
28
0D
16
0D
14
F8
D5
07
1E
02
F1
1C
1A
DC
11
19
C9
AC
01
04
17
3A
04
F2
FD
08
2C
F7
F1
E5
EC
F0
FE
FE
E8
EA
F2
0E
07
FB
F9
0E
2F
F6
00
01
12
F8
1F
03
FB
0F
08
FE
FA
F0
1C
23
EE
08
05
EB
06
18
10
24
0F
F8
FA
10
DC
FC
EA
F6
DA
DC
ED
1A
1C
E8
F9
E4
F8
EE
D4
EE
FD
0B
EB
04
04
04
FD
F7
FA
03
0E
0F
19
ED
00
C2
0D
DA
0A
13
13
2B
09
06
1B
12
F9
FC
E8
08
CA
F1
C7
F6
EB
2B
0D
35
03
EB
04
EC
1B
1D
F2
0E
E0
E3
FB
D1
1F
1B
15
FF
E0
F2
C6
19
03
DC
03
15
D0
DA
F1
F5
CA
DA
14
09
22
F5
FB
F6
08
F4
FD
0F
FF
D6
EF
D8
EF
01
E7
E9
13
1E
15
20
09
E4
16
16
EA
DD
F8
DA
CF
E5
F2
F8
38
2C
E6
F2
AE
02
15
E7
16
F4
D6
0F
1A
11
E3
0A
16
06
02
FE
DF
EB
1A
ED
2A
F5
58
1B
F8
DA
D9
09
F8
E2
FC
FA
20
00
E4
D1
FF
0E
00
D7
A7
E0
18
EC
F0
E1
F1
CE
CA
16
F7
EB
14
11
E7
F4
E8
D9
1C
FF
3F
49
1C
E6
DE
D8
EF
2B
04
04
32
05
09
03
E1
E9
02
DF
E8
F9
E4
C7
E9
E3
0D
F1
D4
EF
12
16
FA
23
DC
DA
FA
0A
E8
07
15
EE
1F
F5
F4
FE
D9
B6
F7
F4
FD
14
E9
25
F8
F7
27
E4
EA
BC
23
1B
00
F0
03
24
1B
BA
E0
D8
E8
35
41
DE
CA
1A
F8
CD
FB
CE
D3
12
E7
EC
F7
04
2B
FD
F2
2D
D9
F7
F2
F1
12
F9
DD
DD
1E
FA
EF
0E
FC
EB
48
CD
E0
F1
D7
06
1D
E6
F5
13
DF
0B
23
DA
C9
02
7F
46
C7
06
F9
3B
07
00
E9
0D
1B
E2
FB
2E
C4
11
F4
08
FA
EC
2D
DD
E2
48
E3
E0
19
24
0D
E7
FB
1A
0F
D9
09
DF
E9
12
FB
15
0F
F3
F6
01
21
F2
04
09
07
01
0D
E3
DF
F6
EB
D6
FD
ED
F8
F8
D6
08
03
FA
1C
07
F8
13
1B
06
F4
04
11
F6
F2
FD
FE
00
FF
FC
06
E1
0A
20
21
07
01
02
1F
0E
01
0C
16
01
07
FC
DA
EC
D9
FF
0E
31
05
F6
FD
1C
11
F0
EE
0E
03
DC
07
F8
12
17
F1
D6
E1
1A
F1
F7
FE
1D
08
0F
0F
E5
D9
E8
17
F2
F3
0F
F4
E9
DD
FF
1B
F8
EE
DE
D1
1B
D8
ED
12
F7
07
23
17
2C
E1
2E
EB
C5
DF
D3
D2
F0
FF
F4
18
2B
09
05
2D
1E
39
05
E3
F8
09
F3
09
FF
CF
EA
EB
17
F6
02
F2
F0
0B
FA
08
08
F6
3E
08
08
ED
EF
F4
01
05
F0
37
2B
FB
2A
11
03
2C
0C
3D
0A
1A
FF
04
06
05
A4
CB
1F
C7
D2
3A
29
24
FE
1D
1F
00
FC
0E
25
F4
00
E6
F9
02
FF
FF
E9
ED
F4
F8
12
D2
C2
E0
E1
E2
F1
1A
10
08
EB
EF
CF
07
08
07
10
07
FF
EC
0C
10
3A
1D
1E
17
05
05
0E
06
15
06
01
0E
EF
F3
FB
16
0E
FB
DE
FC
02
13
06
0B
11
FE
19
E8
D6
CB
1F
F3
13
31
00
0D
F6
16
0E
06
0B
0D
E4
E3
F0
1F
07
F7
02
0B
F2
23
08
02
F5
F1
F0
E8
F5
0A
FF
0F
E7
F4
10
1B
EE
D5
35
B8
EC
1A
2E
1B
EC
1A
DE
07
20
20
E4
03
0E
FF
E1
EF
CC
37
FB
07
F8
F4
D5
F0
21
0A
D6
F2
0F
11
0F
CE
23
17
E6
2F
03
E8
06
35
0C
08
20
F3
CD
C1
D7
22
23
FC
00
D6
F7
22
0D
03
06
EC
01
12
35
E6
E6
FB
27
AA
1C
25
F7
FF
22
0F
0B
0F
CD
F2
27
24
01
17
1B
20
23
10
E8
FC
D4
13
CC
E6
F1
03
EF
03
00
13
05
1E
08
F9
C7
EA
ED
00
D4
17
2C
E3
D2
FA
03
DF
F1
FE
EE
CD
FD
07
ED
E6
E9
CE
19
FF
23
0E
F7
FA
0C
03
F1
12
F4
F9
24
FA
DE
30
F6
0E
FF
05
19
12
17
0F
0A
04
09
F3
FE
19
07
F8
F9
FA
FF
E6
ED
1C
F5
30
10
E1
FF
FA
DE
20
1A
24
15
0F
FE
ED
FD
11
0E
04
DA
D8
F7
12
E2
10
09
20
0F
F7
14
26
08
E2
FA
EC
FB
1E
27
FB
D4
F5
1E
F5
F7
06
04
F5
CF
F7
FC
08
1A
1F
EE
00
0F
FA
21
25
0D
FC
08
F5
F7
26
E6
F4
13
00
19
01
E4
0F
0B
CE
DF
FE
05
FA
0B
10
F8
0F
F8
E6
E9
15
11
E0
E9
E8
01
00
E0
F0
F8
F3
02
19
F9
03
0C
0D
F0
DD
D7
FD
05
0B
F9
FD
04
F7
F5
F1
E0
02
13
F1
00
E7
FA
20
E6
01
FD
E9
0E
EB
FE
17
0B
06
1E
08
F3
1A
37
13
24
FF
00
1C
12
10
EF
01
0B
25
E5
EB
EE
0C
ED
0E
3B
1D
20
FE
1C
05
FA
01
0C
CC
1A
0C
11
08
20
08
FA
EC
07
F6
E8
21
F7
FC
37
11
16
36
2C
1B
D0
F7
F5
D6
F1
E4
DB
E3
DA
12
FC
C6
1C
05
3D
FD
D4
E9
F7
17
F5
DF
F7
E1
07
0F
12
A2
C9
CF
EF
0B
18
00
13
01
EA
F2
F6
D7
0C
E7
21
F6
09
FB
03
E8
C2
E9
1A
D1
B6
CF
11
25
FB
FF
D8
F3
04
03
0E
18
FC
32
EF
E1
CD
EA
FA
04
F0
FA
FC
F0
17
24
01
E4
DF
EA
22
0F
FE
18
00
FC
08
E6
D9
E9
F5
CA
DE
FB
D4
F5
0A
EA
08
EC
09
06
03
06
FB
0C
00
FB
C1
D5
F2
0E
F3
D3
F6
F2
22
02
E3
08
09
06
2E
EF
F5
F9
01
E5
E0
F6
E4
EA
DC
12
DC
F2
DE
02
06
E2
F1
BC
F5
D3
C2
30
13
1D
12
F8
F4
E4
FF
F6
0A
F7
08
F3
EE
D1
D3
DF
ED
BC
E0
D2
17
F5
1D
D7
01
15
EC
F6
0D
19
DF
D9
09
EE
03
FD
17
12
E6
0D
E4
C7
FA
B0
31
F3
EA
18
09
22
19
09
F3
F9
19
0B
E3
0E
F2
19
03
E9
09
05
0F
17
D4
EF
EE
24
03
34
10
EF
20
19
17
F8
3E
F4
F7
01
1A
CB
0B
0C
16
F0
F1
FB
E9
E8
BC
08
FC
13
FF
3F
F0
0A
FB
10
FF
0C
F9
E8
FB
21
0D
EE
07
FB
DC
15
F4
FC
FF
E1
E2
11
01
E0
F8
18
31
DE
FA
E7
40
FE
E0
22
1B
EF
24
13
F4
DF
FB
00
FB
04
FE
E9
07
EE
17
0B
02
F1
14
C7
EC
23
1C
F4
E1
07
00
F0
18
3E
1C
03
FB
F2
F4
10
1A
E9
0B
06
00
EB
15
FE
E7
EF
F0
B2
C7
F8
48
21
FA
F8
F6
FB
F2
16
22
E4
FC
00
FD
06
0F
01
0D
F5
E3
F7
A2
EB
03
1F
A6
C6
F7
D1
EA
ED
39
E4
04
F9
10
0F
2D
2D
15
18
FB
D5
E8
FC
D2
F2
E3
EE
1B
19
11
19
41
26
CD
CE
CF
FA
1C
D5
B3
E1
F7
E2
28
13
0F
24
1A
F2
E8
FC
C6
F4
EC
E6
16
D8
0A
0A
02
EA
A8
F0
C5
ED
0B
36
FC
29
E2
DC
EA
2F
1F
0D
B7
C6
0A
20
29
31
DD
DD
34
0A
1B
FE
21
EE
1E
CF
BE
BF
05
02
F9
DC
E3
ED
34
1A
40
0C
02
0F
F8
EB
D9
01
ED
28
E5
E8
00
1D
F7
F4
18
00
E0
A6
F3
08
0C
22
29
E2
DB
1E
02
1A
DE
24
F7
05
10
EF
08
D4
08
D2
0D
2E
D0
0A
D9
19
F9
DB
25
EF
FD
EB
0E
11
E9
04
0E
2F
0D
13
F9
E6
00
0E
08
23
E4
E7
FC
08
F3
11
D7
D4
F7
2D
0F
18
03
CE
F0
16
E6
EF
0D
03
02
1A
F4
E8
03
24
E1
D2
17
36
20
0F
F0
15
15
23
06
0A
19
FC
FD
13
08
FF
EC
FC
03
1F
12
13
20
0B
AE
E3
D1
E2
E0
FD
02
0A
11
E5
1E
F7
FF
D5
13
FF
F0
10
E4
E6
13
E4
23
D2
0F
3E
F8
EB
07
E8
FA
FB
0C
F0
F7
FA
10
1B
CE
07
0F
02
EC
09
0B
D3
00
03
08
04
F6
E0
D3
F5
15
0A
F5
1F
13
16
EC
02
14
31
23
1A
09
F7
1C
11
05
E4
06
F9
E4
15
02
E7
F4
08
16
F6
EF
00
0C
0B
14
D6
07
03
0C
F7
FA
14
15
12
E8
ED
02
0D
F9
FD
EA
E6
EB
F7
E0
F5
F8
FA
0D
BE
E4
DC
07
03
22
DE
F2
F1
F8
1E
0C
06
FE
03
F1
F6
E8
1B
01
ED
EC
00
FB
EA
22
0A
06
0D
12
2B
22
13
DA
E7
E6
BA
16
15
1E
18
16
41
15
10
FC
E7
DD
0B
F3
F4
03
F8
0A
03
FE
12
3B
5E
3B
0D
1F
1E
E3
E6
DC
EF
31
0A
08
27
14
07
15
F7
07
2E
0D
27
37
0A
F5
FF
05
ED
F8
0E
F0
E5
E5
F9
12
F7
24
0C
D9
EF
D7
E2
0C
0C
13
0C
FA
05
FD
16
10
02
FD
0C
D4
D3
DD
DF
19
0E
17
DB
D0
0B
F6
04
E8
D9
04
D8
14
12
03
04
26
FA
07
FC
00
EE
D6
1D
0B
00
D5
F4
E2
EF
CA
C1
E7
FE
15
00
18
F2
05
17
D6
0B
BE
D4
07
FA
EC
EA
DD
2E
FB
0E
F9
F1
FF
E7
08
21
E7
16
EC
FB
D9
08
27
FE
14
28
2D
FE
F6
1A
0E
EC
12
F3
EA
14
FA
D4
ED
0E
1A
2A
05
FC
E8
FE
00
1C
F3
10
EC
DE
F1
1A
E9
07
1B
06
F3
D5
D5
EF
E3
1E
02
F3
F8
F4
17
09
09
E4
11
03
FE
04
FA
1B
FA
FC
01
05
FB
FE
E9
01
16
01
16
FC
F8
E9
1A
1C
1F
00
10
FA
EF
F6
F7
F5
1E
07
15
00
FF
C0
F6
38
FE
FF
F3
10
0E
F9
E8
0C
08
01
09
02
14
0B
ED
09
0D
2D
FA
18
07
F0
FE
0D
08
06
EA
EB
E7
21
1C
17
FB
0B
0F
09
F2
E6
DB
00
12
F1
FC
04
05
06
EF
F5
FC
B6
19
D0
B9
E9
D6
01
FF
FD
26
28
D9
16
3F
05
F3
C6
0B
08
BA
DA
26
FC
20
09
F4
0F
01
EB
FD
E0
0F
F9
06
08
D5
DA
F3
23
F8
05
FB
28
1F
B7
27
26
DD
19
FA
19
2C
23
FF
F0
15
0D
F6
15
E6
E7
F2
E8
05
EF
FB
FA
DD
12
05
24
FA
EE
EE
DF
11
F6
12
FB
DF
D9
2E
35
EB
F9
1B
03
07
24
0F
3B
E6
F2
EE
10
FC
FE
19
23
0D
EC
03
DE
13
03
10
30
E5
06
07
E5
04
24
E3
E9
E6
E7
06
11
07
C7
F0
05
EC
B4
FB
05
10
13
03
F0
B9
C1
E9
17
04
14
02
E0
0D
CD
CF
F9
E9
02
03
D6
F8
04
C4
EE
F4
02
C9
CD
DE
0E
0D
27
D1
14
48
00
23
0E
CB
04
DC
DA
BB
E8
F1
05
06
04
1D
35
09
F9
DA
0E
21
01
23
FA
F0
52
E7
15
09
F6
FE
09
F1
E7
D9
E9
01
FE
FC
D6
E8
00
F4
FC
FF
07
FB
08
FC
0A
11
19
03
FB
0C
04
09
F9
02
09
0D
FF
FE
02
FD
29
EB
FB
FC
01
0B
0B
0D
FB
0A
14
13
1B
12
06
08
01
0C
EE
EA
04
0C
EA
EB
FE
07
EB
E8
0C
F1
06
12
12
1A
E8
E3
03
01
F7
00
10
ED
08
E0
E7
E5
FC
01
EA
E8
D1
E1
15
0D
07
CB
F2
E8
03
0E
19
05
19
07
05
12
F2
FA
F9
F7
08
0B
F4
06
1F
04
03
02
F8
06
00
1F
FC
FE
EF
DB
CD
BF
FF
F6
F9
11
03
05
FB
E8
EB
D8
D1
AC
24
0D
01
13
09
12
FF
21
06
10
F1
10
0A
FC
FA
F4
0F
F0
F5
0C
28
D8
D8
E9
DB
F7
E2
07
F4
FA
F5
0F
FB
0A
3B
22
F6
E0
EA
FA
E0
F5
16
01
13
F5
03
06
FD
EF
F8
1C
FE
10
33
ED
DA
FD
F6
2C
01
D0
F4
27
E0
E3
ED
03
01
05
FC
15
F9
DE
9E
F0
F5
19
DC
D0
33
05
E9
F8
1C
FB
FA
19
0B
DA
FF
06
10
D8
E3
EE
CD
C3
3A
0C
C9
E0
0E
05
3C
02
FF
0B
DF
23
EE
CF
F1
F6
F9
41
FF
1A
03
F2
15
0F
18
AE
EF
1B
1A
3A
08
F8
DF
29
E6
E9
D8
11
03
19
0E
DF
FE
25
CC
0F
2E
1F
E1
0D
EE
17
F4
0C
16
10
DC
08
17
F3
DC
D9
02
0A
FA
1B
F2
F6
E4
0B
D7
C9
D8
F9
EF
20
F0
20
09
10
DA
18
E3
0D
13
E8
C7
FE
13
F3
08
13
0D
D8
E4
F4
12
18
03
E5
10
FA
F3
FA
05
ED
0C
11
D5
33
00
F9
F3
E7
09
0C
E1
E2
E5
FE
D9
DE
ED
16
03
20
EE
02
FF
05
E6
EC
FC
1D
D4
EF
DB
DB
03
0B
09
21
19
EC
F9
08
FC
FB
0A
04
14
0D
0F
FD
D0
0B
EF
02
FD
FE
00
10
E9
0E
1B
D6
1F
E1
1C
A3
DA
01
F8
08
03
10
FF
E8
09
1D
FD
31
11
D3
02
F9
DE
04
FD
E1
E5
F7
04
E3
FF
15
EA
DE
D3
0C
18
EA
CC
F9
03
AD
E7
E8
ED
07
EF
DD
15
06
10
05
F8
FF
01
E7
FC
17
E5
D4
FA
26
FD
D8
B8
DA
EF
21
21
1F
19
F2
0E
DF
03
03
01
F0
08
FE
D4
C3
F6
C7
FB
16
DC
F4
0C
DC
F9
E6
05
1D
FF
E2
13
0B
10
F8
E8
CE
EA
EC
D4
CB
E6
F2
F9
EC
08
FD
0E
28
20
06
14
E7
14
AC
B2
E3
02
FF
18
F0
F8
FE
E6
C2
11
FB
13
F8
0B
15
28
B6
FE
FA
E4
30
25
16
ED
D3
18
0B
D3
F4
CD
D6
43
FF
06
E1
16
2A
EF
F0
FC
17
10
1A
23
21
F3
00
F5
1A
FE
FC
05
07
0B
E7
0C
07
03
E9
B9
FB
09
13
0E
10
F2
F9
DD
F3
F4
E4
02
11
EB
06
F1
11
08
F7
20
FE
08
EF
F1
0E
2A
13
20
20
0B
1E
18
12
1A
CE
FF
2F
F3
E9
EB
EB
D8
F2
19
02
0F
0F
E8
EE
FB
DB
09
1F
1A
26
E8
E3
0E
FD
D2
0B
0B
02
2D
00
02
11
DD
05
1F
10
02
03
05
08
19
DB
BC
9E
D8
18
02
30
F1
07
0E
FE
06
CD
F3
D8
F8
EB
27
FD
D1
E2
FA
EE
06
F6
F7
FB
D1
06
F3
FC
06
07
F2
E3
C4
E1
F7
FA
29
FE
01
FD
FD
0E
03
E7
E6
F1
17
19
F6
E7
12
15
1C
F7
09
13
DF
DE
F9
FA
2E
FD
FC
E2
F3
FD
48
0E
1D
FE
F0
23
1F
12
21
E3
E3
E4
FB
24
16
E5
D5
0E
CC
D0
E2
19
DE
F1
21
22
FD
1A
15
17
F5
15
EA
0A
EA
0B
EB
10
FA
B2
CC
F8
B4
D1
30
13
0C
06
31
FE
E6
FD
E2
10
F3
08
05
B7
CA
B6
14
F1
EF
16
06
02
21
0D
0A
C2
DB
42
D5
CA
E6
FF
20
25
FA
FE
09
F4
DF
CC
13
12
1B
F1
ED
09
12
E9
AC
F3
F9
EB
CE
D9
FE
24
17
39
F0
16
CB
E6
02
C4
DF
F0
07
F1
E8
B0
05
15
F1
25
E9
3A
D1
E5
08
13
00
2C
E1
F5
3D
0B
EC
FE
E3
E1
F2
F8
F8
24
F4
07
0A
0A
32
1A
D2
F9
FF
F0
0B
FA
EC
F5
05
04
1B
18
C6
DB
06
EE
12
DF
EB
FD
3E
16
13
07
FA
F1
E4
FD
DA
C9
18
E9
D8
2E
16
EC
F9
F7
03
0C
27
F9
EE
D4
FD
17
24
F6
FC
27
13
BF
AE
D7
05
F8
1D
ED
F9
FE
F5
F8
EA
0B
03
D7
07
01
FB
FB
EF
14
F7
F9
FC
2B
47
3A
15
FD
F0
09
F1
07
F6
04
EC
11
0F
2D
07
D5
F4
24
CE
09
03
02
26
07
0C
0C
34
0B
14
1C
23
3A
02
F5
DC
20
E8
EB
F1
05
07
EF
EE
1C
03
12
F2
DF
BB
E8
C6
20
04
08
E8
D2
FE
22
02
13
FA
26
33
FD
EF
F9
FF
FA
11
1A
45
16
FB
04
07
19
01
20
1B
E1
E6
EB
EE
2C
EB
EC
F9
0C
DB
00
F5
CB
FD
F7
DD
D0
FA
0C
02
0B
16
0F
FA
01
08
FE
19
E0
12
3B
EF
05
02
F6
01
0B
06
E4
18
0E
06
12
05
E9
F5
FD
20
20
E9
FB
10
0C
07
E5
26
F1
18
DE
16
C8
D6
EB
FC
D6
E5
FC
06
DE
BF
11
21
22
F7
F0
FE
26
0F
E3
03
2B
E6
DD
01
C8
04
F7
F1
34
04
EC
10
11
29
F5
FE
F1
D1
D6
0D
EF
D2
F0
D9
16
EE
20
F1
2E
1F
00
19
0B
1B
27
E5
F3
16
08
05
00
E9
BB
BD
25
FB
DE
F7
15
C3
1D
01
1E
2B
23
F6
F6
D6
AB
EC
07
F8
2B
28
37
24
FD
15
32
36
06
0C
00
30
07
E6
F3
A1
E8
01
23
EE
F9
09
E4
0E
18
04
DE
FD
1C
14
2B
16
FB
1A
01
0B
0C
12
1F
FA
0D
13
12
F1
FB
BE
DA
C6
F6
F6
1B
19
11
1D
10
3C
F2
E8
0E
09
C5
FD
C5
F6
B8
E1
1F
10
12
E9
02
04
FD
E6
F4
CC
E9
FC
0B
21
0D
F2
0A
10
F1
E5
DE
0B
FF
04
14
08
E0
06
E2
DA
0F
03
08
42
39
27
0F
1E
09
25
11
E0
E5
F3
FF
12
15
12
D2
E2
0B
32
0A
09
F1
E1
2C
F8
04
13
22
0C
22
12
14
1D
00
D6
EB
C3
BF
D6
FE
23
0E
21
1E
0A
F2
EA
F2
D3
22
F1
E6
FE
EF
FD
07
00
03
20
01
F5
F2
E2
D6
BD
E5
FC
09
DE
E5
1A
F9
14
10
1D
E1
00
EE
0C
11
21
B9
01
F6
1D
FC
D9
0B
C9
EE
C0
E8
D9
DE
19
17
1E
FF
21
20
05
E4
FD
05
F9
F9
FB
FD
0A
E8
ED
B9
E5
B0
01
DA
D3
06
12
C1
F8
FA
FF
04
04
22
05
ED
03
0B
1B
E5
0D
FD
26
E6
EA
F9
E6
07
11
E7
FD
F0
FB
0D
DE
DD
F9
13
F1
E1
FC
DE
C6
F6
12
FC
2D
FC
E5
19
E4
C9
C1
D8
D9
D2
26
F2
1E
12
FD
0A
FB
E8
D9
37
07
1B
F0
23
41
CB
F7
32
1E
20
F6
24
35
1F
03
04
0F
E1
0C
33
ED
05
E1
FD
20
2A
ED
E8
FF
F7
32
0D
E3
C8
EA
D9
FF
BE
43
1C
2B
18
0E
1D
0B
F0
FC
F1
0B
F7
31
E9
14
ED
E7
FC
21
09
FA
F6
0B
DD
16
09
45
09
F2
31
E7
2F
E1
1F
DE
05
11
D5
FD
08
18
39
24
F6
0F
EC
F5
B6
29
EA
DE
39
1F
F0
E5
21
22
6A
FF
AB
3D
09
29
FA
05
1C
04
E3
1E
E8
F5
14
29
E5
AC
FE
05
F9
E2
EA
0F
F1
16
E9
F3
C8
D1
4E
D7
C2
13
E6
EB
10
C5
E6
F2
F8
E0
14
26
1D
F4
2B
E5
03
FB
E5
CF
C7
D2
C9
0C
09
B8
EE
11
24
30
21
BF
FD
13
FA
07
DF
1F
FC
10
F2
06
28
ED
D8
E7
C8
12
1B
2B
DC
F1
DD
F0
58
FA
D4
25
E6
DA
B0
FA
19
20
BB
E5
C8
0F
25
0A
1A
FB
25
0E
17
28
F4
EB
FA
ED
04
1B
02
01
E8
D2
EE
F7
E1
19
F4
2E
31
24
EA
1D
ED
F9
1F
1F
E7
36
12
08
ED
EF
F6
F6
F1
E4
0B
1C
09
C3
DB
02
0F
D9
00
34
4B
CD
EF
08
EA
1E
F2
FD
EC
FD
EC
23
E0
00
17
0A
E5
1A
F4
F5
03
17
C1
A7
A3
EC
0F
1A
0E
21
09
17
0D
F2
DA
EF
DB
FF
F5
F0
EF
FD
11
F7
F7
08
1D
10
08
FE
02
FA
EA
07
F5
FC
0D
18
0B
29
01
F0
F3
08
FE
F5
F3
EB
FF
E9
1F
12
42
E9
F0
00
E3
FB
FD
F4
E8
FA
04
22
28
0D
F6
FD
FC
FE
09
21
15
FF
10
32
10
0B
12
EB
0B
FE
04
19
EA
E5
F9
02
FB
02
00
F0
FE
F3
D9
05
03
D7
0A
03
04
11
32
1B
ED
1D
C2
DF
E5
00
11
DC
FF
2A
10
31
03
04
22
10
03
EE
15
EE
08
0A
FB
0D
2F
19
ED
DC
1C
28
FE
E9
F3
C6
06
F5
F6
13
14
D7
E7
0A
E4
0D
01
D1
D6
0C
E8
00
1B
14
DD
0F
F9
FA
15
F5
F1
D6
08
FF
C9
DF
D3
06
BA
F2
1E
2C
0E
EE
03
1B
19
ED
F1
EF
0D
F5
0C
F8
F3
2E
1C
F9
FE
04
AE
F8
FF
06
0A
EB
15
E6
1F
10
FA
E1
16
24
16
13
06
FD
FE
F5
06
FC
0A
2E
EC
1C
E1
EE
D9
FB
01
18
E1
03
1A
F3
06
CE
15
D8
E1
C8
CB
EB
FE
08
03
C8
EF
FE
D6
FC
31
D8
0B
0C
E2
F3
17
FB
FC
E4
20
1C
D0
19
17
2B
CD
DF
14
13
ED
E4
20
02
F5
E4
FD
1B
0C
EF
15
04
09
01
17
11
0A
0F
05
16
F5
E1
DC
0B
05
34
2E
06
DB
EB
F9
00
17
1A
EE
F3
00
00
F4
15
09
F1
12
F6
EB
C6
FA
0C
00
0D
FF
E6
0B
DA
FE
0D
14
3E
09
EF
0C
0A
C0
D1
CE
E9
D8
04
09
00
0A
E2
BC
FF
C2
06
F4
2D
05
05
F4
DC
C4
21
FF
01
FD
10
01
09
D3
0F
17
00
09
18
D5
BA
14
E4
0E
CA
18
0F
14
EC
08
00
25
22
DA
06
ED
F2
F5
ED
C0
E1
C6
00
1A
3F
F2
48
0B
32
E5
02
A2
C8
01
FC
FB
FD
0B
EC
DF
F8
3E
15
17
10
07
09
21
19
0C
E9
01
E4
03
10
F6
FC
F7
02
04
18
F1
E6
FB
EC
1C
E0
36
F2
C6
ED
DA
09
06
EB
17
25
1A
1A
0F
E5
E7
0A
09
DD
17
F9
F9
21
02
EC
3D
05
D5
E1
E8
CB
0F
0A
0B
01
0E
07
FD
F9
F3
EF
D9
F5
E1
E3
E5
F8
D1
D6
FD
F3
1E
DD
E6
D8
28
1A
08
F2
1A
08
F4
14
0E
1B
10
2D
26
01
0A
34
FB
E7
16
41
48
11
04
FF
E2
27
12
E4
F3
DB
DF
00
FA
D0
D8
E2
F6
CF
17
D8
F0
FD
20
01
05
D9
C0
0C
0D
FF
15
C5
EC
14
DF
F5
1A
1B
0E
18
10
F7
1F
15
EE
0C
FD
F4
1D
0A
10
1A
2A
E3
E5
13
E6
F6
F2
FF
01
1E
FE
DD
DE
F6
F6
F7
04
E0
FF
C6
09
11
09
0E
22
3D
2C
EA
E6
E6
01
EB
FB
DF
EC
EB
3B
21
FC
05
00
14
23
E5
F7
E2
EA
B2
F7
39
05
1F
CF
D8
E9
00
20
F6
CA
2C
CD
F1
FD
EE
CC
CE
E3
F6
16
EC
E7
15
02
01
CF
20
FA
08
E8
0A
FD
CD
1D
F5
DD
03
CB
1E
F9
14
E5
E2
D8
1E
15
F5
F5
F4
FD
EB
DB
EF
C8
0A
E5
DD
FC
F2
DB
EA
15
13
33
36
F7
03
EA
ED
05
FF
FA
DD
05
0B
ED
2E
1F
ED
EE
D3
07
34
08
0B
F2
18
08
0C
0C
FB
FD
FE
0C
32
EF
EE
ED
FC
02
EC
FF
08
F4
E4
EE
11
ED
F7
E3
D1
03
EC
04
EA
DC
E4
E8
F9
FC
05
E6
E7
AE
CD
04
F8
EB
F9
03
EB
F2
E4
FF
0E
FF
F8
0F
FE
15
FD
E8
DA
0F
0E
FF
08
00
F3
15
00
05
14
F7
FB
F4
FE
FF
04
10
0B
F9
04
03
09
0D
FB
E2
F1
F5
E9
07
00
08
F4
F8
FF
F1
00
07
25
04
64
39
F0
ED
06
19
02
0F
10
D7
0E
DD
0A
F2
DB
96
CB
0A
DA
08
F2
3F
39
21
0C
C5
11
DA
ED
E3
08
15
1B
13
F0
1E
FB
29
02
FF
EB
E9
E2
2C
14
F0
E6
FD
12
FF
F8
D9
26
1A
EE
12
C4
1F
F8
1E
F4
11
12
F0
0C
4C
EE
2B
18
CE
05
FF
06
2A
21
E7
23
EA
E7
07
E0
D6
E8
03
EF
E7
26
E9
F2
E5
D0
FF
EA
14
02
2F
F4
02
F0
09
04
EF
1C
0F
14
21
DC
0C
EF
F3
25
FF
26
F2
EA
0F
03
E0
09
2C
11
FF
F2
FD
DF
F5
DA
E8
1C
1D
1D
0D
15
E7
E4
1B
13
02
0A
18
ED
F5
FB
DF
F6
17
2D
00
0A
10
01
E3
C7
D2
E3
0F
FE
1E
F7
14
25
0C
D9
0D
FC
E9
E6
F8
4E
09
E2
0F
0D
1C
F4
1A
F6
F7
DD
CA
DB
FA
02
F5
31
28
FB
F5
10
F8
34
02
ED
D0
0C
D1
0F
21
02
E3
E6
F3
10
0C
F5
09
F3
EE
17
25
F2
09
DE
2C
F3
F0
14
14
F1
09
E9
25
27
1F
F3
0B
EA
FF
07
10
26
05
DB
14
D9
0E
33
E5
E8
E6
11
E8
35
ED
01
E1
0B
02
18
D6
FA
10
EF
08
ED
E7
CA
F2
31
F5
DF
11
09
10
19
F9
15
E8
14
F5
CD
11
27
12
0A
10
DA
0E
11
C2
E7
E7
F6
11
0A
F9
E5
FD
