2E
0B
00
25
13
B2
EE
23
FC
E9
22
0F
5E
14
00
E7
09
FD
FC
2F
F4
DE
DB
14
BF
2C
D5
DE
1A
CE
1C
FF
CA
FD
06
FE
FF
12
E4
FB
02
FC
00
FC
D6
01
05
07
EF
2E
F3
E9
E3
20
0D
06
23
E5
FF
F2
F0
0B
F9
17
1B
0F
DA
20
16
DC
06
0A
11
F4
24
0A
4D
FE
0D
0C
44
D6
2D
F2
FF
D9
E4
03
B1
42
03
F9
FB
EA
2F
D7
15
EA
1F
3D
2B
25
F3
24
17
1C
17
E0
F6
39
17
D2
DA
F0
DE
EE
68
2E
14
E2
12
F2
14
EF
C2
07
DA
3C
06
EA
0E
12
D8
43
D7
D6
15
FE
0A
D6
F7
23
FE
0A
0A
F2
F6
F3
50
11
0D
16
E1
FD
22
ED
FE
16
E1
E7
06
FC
18
F6
E4
E3
4F
24
27
F2
EE
FC
FD
F4
EB
FE
F7
12
E9
F0
2B
F9
09
00
EA
22
EE
FA
E2
FE
15
0D
11
E5
E6
05
13
DD
34
57
FD
AB
A8
D0
DC
11
02
03
1F
E7
C4
50
04
81
A0
04
D4
27
E8
BC
0A
B5
E6
A3
06
1E
EE
0F
FC
10
E2
00
14
17
2F
E2
26
03
C9
0D
0C
3C
F8
FA
24
E1
F6
DF
EC
12
F1
08
DD
FA
F6
F0
06
14
12
0E
F4
FF
C3
D6
FE
42
3E
E0
0B
5F
BC
0E
E5
40
D8
F0
41
DF
FB
CF
E7
0D
19
EC
F9
08
E4
F4
E2
0A
15
FC
2B
0C
E9
C2
E5
E1
34
2E
D1
06
F4
F8
CE
15
11
F9
CC
FB
0E
39
19
E9
10
2C
F1
00
0C
E9
1C
CC
14
DC
20
E3
47
04
14
E8
0C
02
0E
E0
E9
F1
FF
FB
DD
41
0E
EC
FC
F1
C9
0E
FE
C4
F8
05
14
C1
E0
FF
03
29
F3
F1
17
0D
08
07
15
02
22
02
1C
EB
01
E8
0C
25
05
EB
E4
1B
E0
22
0A
16
F7
DF
0D
F7
E4
2A
12
01
47
FD
F4
EE
EF
1D
2D
34
E8
25
DC
D6
E1
33
FF
EB
BF
29
14
42
09
03
03
17
13
0B
FE
49
17
1B
EF
1A
1E
C5
02
0B
08
10
15
17
2A
FF
10
FA
FB
E8
F3
18
01
F2
14
FF
D6
27
F8
EF
07
DC
17
01
26
DE
0A
DC
36
43
92
D5
EE
37
F2
3E
26
EF
E2
12
2D
3B
FF
B4
30
1A
B8
13
E3
D8
C8
18
0A
F4
E6
05
CB
F1
32
0A
FA
E9
1F
5C
03
F2
1A
02
EF
14
06
0C
05
3A
A7
3D
12
25
05
4D
05
4B
C7
C7
1F
0E
EB
2D
07
0E
CC
24
16
DC
09
04
13
10
21
1B
2E
17
21
0D
29
DB
10
01
FD
DB
0F
EF
D5
3C
FA
ED
05
D3
14
E6
23
1D
36
54
1C
F6
F4
3F
16
F6
20
03
4A
1A
E5
01
32
E7
1D
08
15
F5
D7
FD
D3
30
ED
03
32
EB
08
F8
28
E1
C7
CA
F8
FB
55
29
24
E8
E4
FB
0E
EA
D5
C5
0E
EA
F1
2F
34
E5
D5
CC
B9
23
0E
FF
C7
07
3A
FF
19
31
1A
F3
EC
38
F0
0F
F6
E3
20
0C
E5
0E
E6
F5
04
0F
04
E3
3B
F7
F0
E9
C6
E6
FF
11
E7
1F
DE
18
FB
27
D0
F3
27
0F
E6
36
A3
F3
D4
0B
EB
FB
DE
C0
C4
B9
EF
2F
09
CD
E9
CE
D3
09
13
07
CF
D1
09
FE
08
F7
36
39
DD
ED
F3
09
D1
18
F4
09
E3
02
E5
11
C7
05
E9
F0
CF
1E
F4
03
F7
B7
0F
05
36
F8
E9
ED
FA
0D
08
29
07
DB
06
15
05
06
17
10
2B
0A
15
F7
08
FF
FA
17
F8
EC
E7
16
E3
25
F7
F9
02
DE
19
F9
12
0B
F9
27
16
DB
0A
00
01
02
18
14
29
0F
0E
F4
07
FE
03
12
FB
F8
F6
12
E5
22
02
FF
04
E3
13
00
18
FF
E8
13
1C
1C
FD
06
EE
F9
CD
07
02
FC
FC
DB
E9
FA
FC
25
12
D2
ED
E6
D5
E4
1B
15
D5
FA
06
E9
08
09
17
F2
0C
29
12
F2
F1
02
E4
13
C1
02
F0
12
EB
11
02
FF
0D
04
EA
E4
DA
16
EB
19
1F
FA
FD
F4
2D
09
0D
EE
F2
09
DF
E0
F9
1D
DE
02
C4
F1
FA
01
D1
18
19
F0
FC
14
E2
00
ED
EC
F5
0A
0B
1D
EB
F2
FA
05
CA
D1
01
F5
3E
64
21
F6
DF
DD
EC
BE
EB
1F
08
8F
07
3D
30
E0
EB
FE
E1
3E
1F
E5
C8
E6
15
F2
2D
F9
04
01
1C
0B
09
1A
DA
F4
EE
19
05
DE
F3
CE
0B
F3
F1
3C
26
D9
DF
E1
B9
CE
1E
E6
E9
E9
08
CD
05
1E
0C
D4
1C
5F
E1
ED
E3
0A
09
29
0F
F7
F1
FD
D2
1C
0D
F9
32
ED
E8
FE
EC
D4
ED
14
15
1B
C3
23
1A
07
0F
36
F6
DE
ED
32
0F
01
1B
05
3B
0E
F1
FF
00
0A
08
0D
F3
EA
E6
10
CF
20
E0
F7
13
E2
1C
02
12
E3
21
2C
DC
D1
16
37
0A
EB
11
FB
2C
EC
E5
D3
CA
11
24
0F
00
E8
F7
EE
CC
1B
E1
15
05
EC
19
05
EA
14
E4
F4
0F
08
E6
D3
2F
2A
20
FC
38
09
0F
18
00
0E
39
F9
E2
E1
D9
07
BC
E3
12
20
D3
02
17
16
10
E5
11
0E
0F
04
DA
EF
0C
07
F9
02
D1
09
EE
EC
FA
18
0E
DB
0A
0D
FE
FD
FA
07
F7
10
02
12
D9
02
03
0E
C5
11
F5
F5
03
0B
1D
01
1C
19
24
23
15
26
2A
F6
0F
FF
F9
E2
FB
EA
D3
25
12
E7
0A
FF
23
E2
0D
DE
EA
D4
07
09
53
3F
15
03
F6
E7
0F
C2
F7
E5
2E
BF
D3
40
31
F9
D4
13
D3
33
1D
DF
C8
F4
25
08
ED
FD
E7
24
09
12
DA
F8
0B
FD
F6
F1
E7
04
FD
F8
E7
19
F8
DC
F9
06
0C
0A
0F
E6
20
E5
04
F7
EA
FF
17
E9
E9
D6
12
F6
3F
38
0E
E3
F4
F5
0A
E9
FB
EC
FC
E3
E2
34
2D
E3
DF
D8
CF
09
09
E2
E1
EE
11
F2
12
02
04
EB
0A
07
EB
EE
00
12
EB
FA
C1
F9
F5
01
E2
19
08
EE
0B
14
ED
EE
EA
FB
F0
0D
14
07
E6
FF
E9
D4
F2
ED
F3
0F
22
FA
17
0A
1E
FE
49
26
0D
21
36
13
13
23
EE
B9
D3
D9
DF
38
03
DD
05
0E
36
F4
0E
EB
C9
BE
11
1A
44
11
09
DE
C1
ED
02
F9
DA
D5
EF
ED
04
23
42
E5
C3
D5
9A
F7
2D
1B
9F
C3
30
01
EC
13
DB
F8
FD
CE
FD
27
17
30
28
0F
36
F5
06
1C
31
0A
1D
FB
EC
E9
FC
07
F0
1F
EC
06
FF
04
31
0B
25
EB
F1
DA
F4
0B
62
32
1D
E1
E5
FC
08
E9
CC
E0
07
F8
FB
07
42
E3
01
CD
D3
1E
0F
06
C7
01
36
04
F5
0B
0C
0E
06
03
E7
03
FF
FB
03
F1
ED
FC
F8
F8
E2
06
04
F6
FF
FD
07
08
02
F9
0C
FE
0E
03
FE
04
06
FE
01
F4
F3
07
C7
E5
19
09
F1
D5
F1
FB
FB
00
E1
11
1A
E6
0F
FD
EF
EB
02
F0
EF
EE
11
1F
0B
1F
13
CD
06
E0
DA
CB
69
49
0A
D8
E7
19
EF
EC
02
D8
32
0A
E5
19
18
CB
EE
EF
C5
54
F8
CB
FD
FA
FE
F4
EF
07
08
03
FE
FA
E4
EF
F1
0B
0D
02
DC
20
F8
ED
C7
0A
06
CF
E7
00
FD
1B
14
EB
F7
14
08
19
D8
1F
F4
02
D7
01
EE
DD
F7
E5
2B
36
1A
F5
43
FF
06
1D
0B
EC
1B
F9
EB
F6
0A
0A
00
FD
FD
1A
F4
FC
2B
10
FB
E7
1E
FA
03
F1
C0
DC
F1
EE
F9
D8
E2
29
D7
FB
F8
2D
06
DF
09
FD
00
11
06
08
F2
E3
17
0A
F7
EB
16
0F
DD
28
25
D5
FE
17
0B
0B
31
13
48
0D
06
01
30
D8
05
16
FD
EF
0A
FF
C2
37
F4
EC
00
C4
22
DF
F0
16
F3
EC
09
08
EA
ED
24
37
1C
24
5B
21
F8
19
07
01
F7
13
E9
F4
09
E9
E7
2C
0B
E9
F7
0C
29
F0
F6
06
D9
CE
15
0D
E1
AD
37
3F
DD
EE
0D
13
28
13
FE
FE
21
E2
D6
DD
E2
04
E6
04
00
4B
F1
04
0C
03
04
1B
13
2A
02
F4
CE
FC
0F
FE
FD
EF
F1
04
03
FC
E3
11
00
E5
03
00
0C
17
EB
E4
01
E8
2D
FF
EC
1A
FB
F4
03
2B
F2
F0
14
22
09
03
18
13
12
FF
0B
0A
EF
FF
11
F7
F8
F8
E8
03
E1
25
F1
04
FF
E1
1A
FF
1C
EA
F9
DC
FA
0F
52
2B
28
DB
E5
F8
0B
F9
DA
F2
F4
20
F7
F6
34
EB
FA
DC
E9
21
0F
0A
C7
00
38
16
1A
08
1D
09
09
0D
08
F7
DF
00
F2
23
D4
1A
E8
05
F0
0F
F9
F3
F4
11
D6
04
D0
13
F9
03
10
15
FA
00
3E
05
F7
31
04
D5
04
F8
21
D6
14
F8
36
1A
F1
04
6A
FE
31
F8
02
97
D6
FC
90
45
FC
E5
11
DC
3F
24
28
E0
0D
DB
37
F0
2C
2D
DF
ED
EE
06
12
EC
DB
CF
08
CE
E7
32
31
C7
D4
DE
B7
D3
24
D5
F6
D3
06
B7
18
EE
F0
BF
D5
03
34
1D
49
EC
D8
04
04
ED
EA
D1
FA
28
F2
1E
20
F1
E5
CD
D1
21
07
27
C6
E9
1D
10
22
15
38
09
1B
0F
0A
0E
EC
F0
F3
2F
E0
11
ED
15
0B
1C
FD
E7
E5
1A
D9
04
CF
0D
EA
03
02
02
E6
00
F4
E8
F2
0A
11
F4
FD
EC
FE
01
F1
0E
E4
04
F5
05
01
00
02
E8
CC
33
ED
0C
0F
D7
F4
1F
08
19
05
26
E7
FA
E9
BF
F9
12
3D
19
05
FC
F1
FC
12
C2
05
F8
33
CD
D6
19
20
11
E5
EE
E2
24
16
F9
D1
1C
14
F7
F6
F6
FF
00
01
15
D5
F9
07
FE
0C
F0
E2
0C
F3
04
F4
0B
09
F7
05
11
0B
02
0F
EB
FE
F8
F3
FE
EB
10
EA
54
7C
2F
3A
40
FE
40
5F
5C
24
EF
F5
26
CD
DD
E7
35
21
DF
42
46
2E
12
E8
17
41
10
16
07
BD
C2
