0B
0E
FC
DB
F0
DD
02
12
3E
18
10
FD
24
21
1E
FD
09
FF
E4
13
16
08
1E
1C
02
0F
ED
F5
F7
01
0A
FE
1D
CA
E5
FB
18
03
3A
CB
E2
05
18
15
26
0E
0F
16
EA
F7
EA
14
19
F6
EE
D2
E0
2E
F9
E8
F9
FD
2B
FB
04
1C
05
0B
FB
01
FE
EC
0B
D5
DF
06
00
01
16
F4
BE
E5
ED
E6
F2
EE
04
08
22
00
E8
D4
DA
0E
11
20
04
11
25
F4
EF
E1
05
FB
0A
18
16
0D
F6
09
B7
01
F3
E4
EC
01
01
1E
11
FE
13
18
F1
00
0B
FC
FA
0C
15
CF
01
D1
08
F5
0B
16
E9
D9
02
15
1F
00
0D
1D
FA
08
F9
F4
09
2A
0C
05
15
AB
F3
F1
FB
05
EF
07
17
1C
1C
1E
F1
06
12
1E
E5
FF
21
EF
01
EA
05
F8
06
1E
F1
F2
32
19
1D
F9
0C
08
0B
DB
06
0C
F7
0E
00
F2
ED
01
09
15
F3
03
06
17
05
01
DE
F3
F6
FB
FD
FC
F7
F8
FC
CC
DD
E4
07
FB
06
15
10
22
10
08
FA
E9
F6
0D
F1
DE
D8
F9
EC
F6
FA
EE
F7
02
F8
03
09
FD
FC
04
00
FB
0F
16
19
17
F0
00
E3
F4
E2
F0
F4
F0
17
03
FF
F0
E9
FD
27
1A
16
F1
F9
F2
00
FD
02
FA
06
00
09
0D
0C
EF
F5
E7
0C
14
18
DE
CF
DC
04
F5
EF
12
FC
0C
01
04
0C
EE
DF
E1
EF
0B
0C
0F
05
E7
E9
FC
FA
10
FB
10
FA
F6
E7
02
FD
08
FB
01
0B
F3
F0
21
F6
F3
F7
24
02
0A
F4
0B
F3
F9
F7
EF
FC
F3
0E
E7
EC
DB
1A
12
FC
F7
0E
1A
F6
07
11
12
04
FC
F6
F0
FD
E9
0E
F2
F5
F4
F4
00
01
04
FD
F4
F7
0B
14
23
F7
DC
DD
05
08
1B
08
FB
FC
08
F7
F8
23
09
13
D0
FB
0C
DC
10
30
0B
0A
EC
35
FC
13
12
1C
D0
D6
FE
FF
0C
EA
18
FA
00
FD
17
0C
03
0C
E1
08
BE
D8
E0
0F
F9
2D
FB
E5
0E
0A
06
0A
0F
02
26
F0
FF
19
1F
E5
E5
E5
E0
D7
34
F1
D5
0C
05
26
FA
F0
18
1F
1B
0D
FB
01
02
27
EB
E9
E9
15
E2
13
F1
B7
F7
D4
CE
FE
EB
F2
07
1F
08
00
F4
12
FA
17
E6
1F
09
0E
F5
05
DF
14
FE
1B
0C
1F
0A
08
FA
C0
14
CF
D2
F1
1C
FA
FB
1C
F6
32
26
0A
E8
F0
E9
E2
14
36
02
FD
EB
08
01
F4
1C
DC
CB
0C
0B
F4
0B
18
1D
F3
04
D4
E8
F3
2C
05
05
15
BA
FF
F3
14
01
1E
0B
02
2F
20
17
F2
CF
11
F1
F2
27
27
F5
01
EB
CE
F7
F7
15
19
F1
33
24
1C
F7
E8
F5
13
E4
04
00
FF
19
11
E8
17
02
F1
0A
1D
15
06
1F
07
04
3E
15
00
B0
FD
06
31
1B
DD
1A
EB
10
02
13
ED
2D
2A
FE
1C
1D
DD
B7
08
E3
E3
05
30
F0
0B
E0
FC
30
0B
06
AD
BD
1A
09
FE
03
F8
0B
F1
FC
0C
52
04
FA
0D
04
3A
2C
D9
EA
31
33
3A
23
31
29
26
14
36
C0
E6
FF
51
20
5F
E2
03
01
0B
FE
F1
FE
FE
1F
FE
E4
F9
E2
D3
FE
C8
C5
FD
15
01
17
3E
3E
44
E9
FF
F0
04
FC
32
D5
DB
CE
D1
08
00
19
FE
16
AF
C3
12
CA
0F
15
F4
E3
D3
2A
17
F4
E8
FA
FD
24
09
0F
2D
10
58
CA
F0
F6
30
FF
E4
C8
E6
EF
F5
0C
2D
E5
18
36
CC
FB
FB
02
D2
26
26
02
DE
11
1D
F4
ED
0B
F3
22
25
29
2D
16
D2
00
1A
0C
ED
01
E2
24
12
17
32
F7
31
F0
0B
36
26
E9
32
14
FB
FE
00
26
2C
1D
F8
22
24
03
F7
C8
C9
D9
FB
04
D3
17
10
FF
0F
DB
DA
03
2A
11
ED
FA
E1
B4
FF
B7
17
2A
3C
CC
F2
CE
05
20
13
E9
A9
BA
0B
2B
FB
16
DD
FF
F9
F8
19
48
18
02
F1
ED
12
10
F0
01
31
18
33
2A
32
2A
1D
03
22
C4
CE
01
38
0A
5D
E6
E4
04
36
03
E5
0B
ED
0B
0F
DA
F2
D7
E9
FF
EE
D9
FB
0A
D4
0E
30
34
15
FC
FD
DE
0B
E9
2E
CA
C6
D5
CA
10
E6
1F
FA
14
B8
C5
09
D3
F4
E9
1E
F8
F5
35
11
06
DA
CB
AF
0B
0D
1A
22
00
6E
0A
FD
DA
26
02
D3
D8
EF
D9
F3
D5
43
E8
DD
15
EC
D9
BB
24
F7
07
33
FF
FC
13
FB
EC
E2
0E
F0
02
2C
1E
10
02
CF
03
0A
16
E8
05
F0
20
10
15
0E
E3
08
FD
09
29
EC
DA
D9
E6
E0
11
ED
09
12
09
1C
0F
EB
16
12
06
F1
49
03
08
1F
0D
E2
05
DE
02
0A
57
19
B8
CF
13
3A
13
1E
15
21
F4
0F
F3
F4
28
28
10
2E
EB
0F
EC
C3
E1
FA
BD
F6
2F
14
09
25
EB
EC
E4
F6
DF
B7
40
F7
F0
DE
EB
FC
2C
D2
DB
07
17
1C
F6
DF
27
D6
F9
1C
2A
10
0B
41
06
0E
19
FB
E0
DD
EA
07
00
F4
0B
EB
E2
E7
0F
09
CF
22
FB
22
C2
F6
04
1F
35
2F
E6
FA
DE
D4
D6
EC
20
19
48
FB
2C
FE
14
16
24
1A
08
09
06
EF
04
0A
14
23
1A
EA
04
F7
0F
F7
12
FF
E9
08
16
1F
03
00
2A
E5
EA
07
FC
06
0A
0B
2D
2F
DF
0C
12
FD
1C
ED
CA
12
1F
06
0B
E3
34
27
29
B4
FD
13
ED
FD
02
D4
F9
DF
15
1D
03
D5
EF
00
2D
EB
D9
DD
F6
10
1A
19
0C
F6
02
1D
0B
0B
1E
0B
0A
09
E3
F5
FE
FC
F7
F1
FF
F3
FC
F6
FC
FD
E5
EC
EB
09
1A
0C
05
04
D2
FA
F8
EC
01
FE
EF
05
EE
0E
F0
FA
1C
02
FE
09
0C
11
09
12
19
1A
E2
EE
DD
20
06
1B
11
08
0D
FE
0A
10
0C
F7
19
18
FD
FC
06
14
1F
10
05
05
FE
01
0D
ED
FA
03
12
13
17
16
FD
01
06
13
0A
E0
E7
E8
EE
D6
DA
06
F2
EB
10
09
16
22
19
0C
F7
EB
F6
EA
0D
20
00
08
FE
FA
FC
F6
F9
0E
1B
12
10
16
0D
11
07
F4
F7
E6
E7
05
0A
E1
04
ED
E4
E8
F8
FC
06
10
2B
08
1A
0F
17
02
D2
00
0A
D9
0A
1B
0D
09
FF
F7
ED
E4
0A
0E
18
0D
12
14
24
1A
04
EE
09
FC
FE
09
1D
21
12
F0
EE
E7
F6
E4
FC
FB
E1
E9
0A
23
FA
FA
1C
F3
ED
17
05
11
FE
07
0A
2D
18
EB
E2
0C
1A
0E
2D
F2
01
03
21
D9
E3
E6
07
25
EF
09
E1
D9
D6
FA
01
F5
24
06
F0
FB
16
E9
24
1E
FC
E0
F5
42
52
39
EC
F3
01
01
E6
01
02
F3
00
FE
EF
E9
23
FB
12
52
29
35
39
49
38
09
F4
FF
AD
F1
19
31
19
4C
0B
FC
06
F1
E6
04
23
16
14
15
FD
F1
E4
E4
02
07
09
18
00
E2
01
3E
20
0D
00
EB
E0
D7
D5
F7
F0
E3
F2
18
1D
EF
15
03
12
CA
EC
EC
C1
D5
CA
0A
FC
10
35
2D
1E
D8
F3
F0
D7
02
02
2E
27
4A
1E
FC
01
26
D3
D9
D0
F3
DC
E3
E8
F7
F0
EA
F4
F8
DA
F0
33
0C
01
39
05
E9
09
03
14
14
0E
29
12
02
10
EF
C8
B9
DF
2E
0C
0C
18
F4
14
0C
0F
06
05
1F
23
0C
12
0B
07
E6
11
F7
F8
30
2B
25
16
0A
04
10
F0
E3
B5
CE
FE
39
0B
DF
06
11
07
A8
99
B6
02
0D
03
07
03
D8
B4
F2
EF
0D
28
23
FD
0E
0B
14
40
3C
EE
C1
D7
3E
4F
39
DC
CB
0E
15
EA
0F
22
EF
EF
1B
0B
29
24
25
F6
31
2F
3B
3A
4C
33
02
03
20
AC
EA
3E
30
1C
36
15
20
1F
07
EA
F0
11
08
24
05
E3
EB
E0
F1
05
F1
E7
18
F2
CD
0A
29
30
0C
F7
FA
DC
E2
DE
0F
F3
EB
F9
08
19
F4
09
F2
F8
DB
F2
FF
92
D9
D4
33
08
0F
36
17
10
C7
C7
D4
E8
EE
FA
23
10
4A
0F
E3
0A
19
F1
C7
DC
D8
F1
02
F8
27
F4
0C
F5
E2
B5
CB
2F
03
03
34
08
D1
F3
FB
EF
03
14
1A
12
0B
FE
CB
DB
A9
FA
1E
1D
14
05
2D
10
1C
19
1A
EB
24
1B
06
23
06
FA
F1
F2
0D
E6
02
0C
00
F5
F7
D0
D0
E5
D2
DC
E3
01
2A
04
11
D4
E3
E7
C8
F9
E3
F3
F9
F0
1E
07
F1
09
07
FD
0F
FA
04
29
01
17
0A
0F
E5
F2
2B
27
18
F7
11
DD
00
FD
1D
34
13
D5
01
FA
16
0E
0B
0E
03
11
00
F2
03
F7
E3
EE
21
F9
13
E7
EE
00
B0
F0
CD
0E
14
12
E7
DF
E3
EF
00
F3
11
F2
1D
17
08
F8
F9
F1
03
03
EB
E5
04
E9
03
FA
05
F1
14
03
F4
2A
23
19
F6
06
27
EC
01
07
4B
0D
03
EE
02
ED
F5
06
03
F1
E0
FD
0F
DF
F2
F3
F6
E0
FC
16
DC
0E
1E
1A
DF
EF
D3
F9
0C
ED
1F
2D
25
29
00
F9
FF
19
02
0F
0B
2C
EC
F9
FF
E2
D3
FF
FE
FE
F2
00
F1
E9
DE
D8
0D
12
FC
E6
05
FC
F4
FC
F3
13
FE
FC
03
20
17
FE
07
08
0C
0D
01
23
DF
F8
02
00
02
14
F9
08
06
DE
03
3D
F1
E8
19
49
03
06
FA
0A
12
26
01
E7
EC
08
3F
FB
07
08
12
FD
03
E9
EF
11
0A
10
02
BE
04
0D
FD
01
CF
06
FF
06
22
25
24
F8
13
F5
38
07
21
59
05
05
CE
DB
D7
28
02
F7
19
FB
EC
02
DF
38
FD
00
2A
19
33
18
0C
FD
0A
23
09
FA
05
04
2C
20
0A
33
D8
E4
EE
FE
1B
BD
23
06
12
F2
FE
03
09
10
19
18
F8
DC
E4
EF
D8
14
0A
3E
EC
F1
F0
0C
0C
0A
EB
E9
01
0F
E3
EF
FC
0C
09
17
0B
1F
DF
FA
EC
10
03
DB
02
0B
34
1D
02
1E
04
E3
E7
F7
F1
FB
16
0E
1E
D9
F6
F8
11
14
E9
AD
08
2A
1D
FF
FE
32
0B
19
B6
E9
FF
F6
FA
FF
2E
20
00
F4
E4
00
D0
DB
F2
00
F0
DA
FC
FA
EE
04
F5
F5
13
18
1A
03
12
13
07
37
15
E4
ED
0A
15
0D
14
0F
24
26
EF
F3
E4
E5
0B
FE
0A
F9
12
F2
0C
F1
13
15
27
EE
FD
F3
29
05
0A
F3
07
F6
ED
ED
FD
04
15
1B
11
F1
02
10
0F
F3
F6
1A
0A
FB
2E
12
E5
E6
E6
0B
F1
FE
E8
D9
F6
11
07
F0
F2
F8
EA
F7
FE
FF
F4
F5
04
02
09
FF
D9
D0
C3
17
24
1B
02
16
22
E3
DF
E1
04
F1
EE
00
FB
F9
01
12
E5
FD
F6
F6
F2
F3
03
1E
02
06
F9
09
F2
0D
12
0A
0E
17
F3
BC
05
E9
0A
09
0B
0A
08
05
F5
05
0C
01
1C
1A
0E
1E
17
01
00
14
0B
0B
04
CE
06
FB
EA
F8
ED
F0
FB
E0
0C
1E
FD
0D
11
28
FC
FF
0E
F3
07
01
11
FB
00
FB
E9
12
04
09
22
F9
0B
00
03
EE
FB
1F
01
F6
EC
10
F2
FE
E8
E4
01
0B
14
F7
13
E3
CE
E3
C3
CC
E2
0F
0F
F6
0F
EC
E4
CA
B7
A7
F6
F6
F3
23
0C
FA
FD
16
17
02
14
FF
02
25
27
31
19
18
0F
17
1F
1A
2A
0F
19
D9
D5
13
1E
19
0A
D1
06
C0
2F
13
11
04
1A
15
F7
31
08
31
05
08
F4
04
16
DF
F6
FB
C4
EF
E3
16
21
24
DC
D2
E4
F0
FD
F7
0D
17
23
EE
0A
23
F3
06
1E
E3
03
C8
07
EE
0D
04
04
0D
F3
EE
E0
35
2C
3A
E5
12
37
01
EE
EE
14
2B
26
CC
F6
FE
17
F9
05
F8
04
03
E9
D6
ED
C9
E5
ED
FE
19
ED
F6
04
1D
FD
F0
D2
F8
F8
04
45
20
15
0B
F0
FD
F8
ED
F7
28
21
10
0F
EE
F8
E2
E2
D2
F6
F0
FE
F7
F6
EE
D8
D7
D9
25
14
02
0F
1B
22
FB
E5
D3
EF
DA
10
1F
08
FB
10
06
00
E3
01
E9
FA
13
42
17
FB
EB
1D
0B
08
0B
18
01
C7
F8
0E
07
0E
28
07
1A
02
06
11
0F
E8
E7
25
C1
E1
19
15
09
3D
D9
EB
25
01
10
04
1D
15
1C
F2
FE
0D
18
10
FC
B8
CD
D6
1D
F8
E4
03
14
1E
02
F7
11
F1
16
FD
FE
FC
F5
06
D6
BB
03
0D
13
0E
ED
BC
D6
FF
F0
E2
E0
EE
0F
1C
E9
FB
E2
E2
1A
39
2E
06
17
2A
F9
ED
E9
02
EE
FF
0C
26
07
EA
05
CA
06
F5
DA
EE
0D
F9
19
F8
F7
16
21
01
F3
04
FF
F2
0B
18
D9
F4
F2
13
F6
0D
24
ED
D4
08
FE
22
00
20
16
EA
F1
FC
DC
F0
24
FF
FC
16
A0
F0
DE
F8
F8
EE
FB
18
3D
12
35
FC
09
0B
0A
F3
1D
1F
FD
03
03
04
FB
02
1F
F3
D0
33
11
13
F0
FD
02
06
F7
0A
08
FE
0F
07
E5
06
33
20
07
10
07
23
0E
FD
05
F2
E4
D9
F2
0F
0F
02
0B
FE
2A
07
E6
F7
FC
09
0C
0D
08
EE
16
07
EA
F5
ED
16
FC
FF
12
1A
10
28
2C
08
F3
16
D2
07
DF
E4
20
07
0A
1C
0C
E7
FF
0B
ED
0C
01
18
F8
F7
FD
FF
22
1B
FB
11
13
F9
17
19
0B
05
F2
14
0C
FC
12
EC
DD
01
E9
EB
23
F1
DE
24
22
2D
10
E8
10
05
0E
09
17
14
06
EB
FC
00
04
0D
ED
19
1A
1A
07
0E
EC
0F
F5
0F
FE
FF
EB
DB
D6
F8
17
E6
06
E3
E7
E4
DA
E6
05
04
13
12
E9
05
15
F3
F6
F9
1E
EA
04
FD
DE
EB
23
1C
0C
02
0B
FB
20
F9
0D
FD
EF
13
01
0B
F3
21
22
25
FE
10
E7
1B
07
0E
DB
EC
0B
F4
04
EF
F6
F5
22
05
E2
0C
EF
E5
EB
10
19
06
FB
FB
03
DB
0F
E6
03
DC
28
F0
26
19
19
26
E0
0A
06
13
12
DC
11
F2
07
18
EC
CC
E0
DF
E9
EF
28
0D
F2
0F
FB
2D
10
33
0D
1E
EA
FF
CA
DF
1B
0C
1B
14
D5
F7
F0
E8
02
D3
D3
F1
31
0A
FC
27
E4
DA
EA
08
FC
1B
46
0F
06
EC
1E
07
EF
E1
11
19
17
29
EB
E3
13
EB
E7
FA
F2
09
F7
17
15
F9
00
EC
F4
E7
DD
0A
F1
D8
0C
10
0C
FD
F9
0F
E9
F8
E7
17
F2
F3
EB
0F
25
28
FC
F0
D3
DE
EF
F0
0A
09
4E
EA
FE
15
19
08
E7
F9
1D
19
F9
00
1B
00
E8
F5
0C
06
E7
D6
25
E3
18
10
D1
06
1B
10
09
E9
1B
FF
E9
08
1D
FE
01
13
19
F6
04
12
F1
FD
13
FD
CF
07
18
07
F4
D3
2A
FC
0D
DD
F5
10
1A
E3
39
EF
F5
04
0F
14
13
EE
C8
E7
10
08
D7
2C
0E
15
D0
F3
EF
EF
0C
24
07
F8
F2
2D
03
20
14
2B
D4
C6
DF
FC
FF
EF
1E
00
1E
01
19
12
05
ED
DE
05
BB
DF
F1
19
EE
28
E9
DE
04
03
02
F9
19
08
2C
F8
07
1E
0B
EF
D2
C1
D3
D7
28
E4
EA
12
0E
38
F8
D9
19
14
1B
0C
08
F5
01
1B
EB
C4
F2
1D
F1
13
DB
BE
E9
DD
E2
0A
E3
00
04
18
01
0E
E3
0A
FF
12
04
0E
05
1A
E6
FE
E7
0C
F6
1B
0C
11
0D
F3
E9
C0
19
C8
E4
00
21
FA
15
10
EC
2A
36
05
D0
F5
E1
ED
1F
2E
02
FD
F5
10
FB
F8
21
DD
C7
02
FF
10
0D
1A
1B
F2
F4
D8
D9
D9
1D
F6
FE
09
C7
07
F6
14
04
00
0B
0B
35
2D
2E
EC
D8
14
EA
FA
26
30
FC
09
E8
D1
EE
FB
20
17
CB
2C
2F
15
FC
F0
11
0A
F5
11
FB
00
24
1F
10
15
CB
F2
05
F1
04
42
28
13
FF
23
35
22
11
01
FF
D7
F9
FF
FC
02
1F
FE
18
E5
F4
0C
F9
FF
F8
13
C9
E0
D1
19
F9
2A
E9
D3
FC
27
F5
40
F6
16
1D
F7
10
E5
1B
0D
12
FA
E9
E1
34
F9
CC
FA
E8
31
F4
FC
1C
2B
13
F3
0A
E7
F4
07
D8
E2
03
EE
08
07
EC
BE
04
D0
C9
FA
FC
02
0A
19
0A
00
DB
F5
1A
0B
13
12
F9
03
DC
F1
E1
07
FB
16
09
07
07
09
0B
B9
EE
01
D8
EB
FE
14
08
1B
F6
26
27
00
F4
1C
01
06
0A
20
F3
F3
BF
10
11
FF
F6
D2
C7
FE
23
14
0D
0B
34
EE
02
EF
CC
F3
0D
0A
0F
19
A5
E7
F1
E4
19
FD
0F
05
15
0F
10
EF
F7
12
1A
D8
19
27
F4
FB
DD
FE
F1
16
26
0D
13
35
20
1D
FA
F4
F1
0D
DC
00
F8
EF
FF
B3
BF
C0
16
17
F0
C9
D9
C5
F6
1B
0E
05
02
0F
CC
1E
51
06
06
33
4B
11
3C
0B
15
22
07
F9
E3
F7
03
45
E5
F7
05
15
DC
FE
1B
22
38
DE
DB
F5
21
26
1F
E9
EA
F0
FD
13
17
14
19
2D
09
1D
FF
F0
DA
C7
E3
A2
CA
D1
C1
D4
0E
14
0B
E4
06
F8
FF
0C
00
05
08
24
63
54
3B
1E
03
2C
46
0B
27
F0
10
06
17
E9
31
C9
C7
D3
04
E7
B2
21
04
1A
F7
F4
23
06
18
0B
FC
0D
E4
22
ED
E4
0B
2A
32
F0
0C
10
25
26
04
31
E8
16
F8
E0
F6
28
44
3B
0B
0A
20
0F
EA
DD
E8
D2
BA
0F
1D
38
29
18
3C
FA
F2
DC
FE
21
1D
1C
3E
2F
B8
F8
F3
0A
0C
DC
D6
1D
19
29
0F
0A
54
32
35
D0
22
34
F9
EA
F7
EB
CF
C1
FC
F6
D9
FB
21
3A
FA
D6
CE
04
F7
0D
DB
02
CB
E4
FE
10
DF
03
DF
DA
F8
0A
12
F7
0C
0C
01
ED
E2
DA
DB
FC
F1
02
18
F8
E9
02
FD
F3
10
F3
EA
0C
ED
12
0E
FF
0C
EE
E0
E9
14
15
11
D7
F3
F7
CE
ED
F7
0A
0E
0F
07
29
F0
04
15
08
F1
F9
FB
34
28
0B
24
30
25
20
1A
25
27
17
0E
F5
E5
DA
2F
0E
E0
F7
EC
E5
0B
02
FD
3B
1F
1D
F0
F2
D4
06
14
18
0E
E5
01
FC
02
07
04
04
0A
1E
24
FE
FC
FD
1A
11
21
02
06
02
E9
12
2A
41
04
02
10
F2
F9
1C
1A
13
20
FC
0A
02
12
05
F4
F9
0C
DB
E4
F2
04
E1
E5
EE
F8
00
E2
1C
04
13
EF
D7
E8
EF
F4
F4
14
0C
03
F9
F0
13
14
22
08
FA
03
02
05
DB
DF
EA
04
10
E5
F4
05
01
07
FE
E8
EA
F3
0F
1C
29
F6
FC
1A
F0
F7
04
19
06
DC
10
DC
EC
0E
F8
42
EB
0B
1D
F0
1C
DC
22
0A
D0
F7
0C
06
EA
01
EB
D4
ED
E4
07
EC
F8
08
E7
D4
F1
F3
FC
22
0B
E2
2F
0A
10
02
00
06
11
12
F9
27
1A
E9
17
0F
E1
E6
07
E8
EE
00
F9
E6
F9
25
17
F9
F0
0F
25
0A
01
E2
CD
15
0D
00
0D
19
04
16
0D
30
EC
1B
31
09
FD
1C
0A
04
EA
0D
0C
02
EB
F6
00
C7
D1
F9
01
0E
E7
21
EC
FD
02
09
F7
F4
02
1B
10
11
FD
F9
03
DA
F3
F4
0C
0B
12
13
19
0C
16
FF
20
11
F5
04
F9
FB
11
23
FD
D5
F6
EA
EF
FD
13
0A
FB
1D
14
FC
25
29
26
DD
FF
01
FA
F8
EB
0F
ED
EF
F6
D3
D0
20
19
16
05
09
1F
FF
0C
EE
2C
20
0D
0D
27
09
20
11
F5
EB
EB
CB
EE
FF
0B
E7
03
2A
F1
E9
FB
0A
F8
F3
03
0C
10
F4
07
04
E5
ED
F5
20
00
EF
12
01
0C
C3
DA
CD
0D
06
0E
FC
FC
0B
0D
15
1D
F3
EC
FD
F6
D3
FA
11
E8
F0
02
0D
F2
FB
FB
13
03
0E
1D
F8
14
FB
10
14
11
E5
E4
F2
E7
DE
E9
EC
FA
FE
08
1A
11
01
FE
0A
1A
0F
1B
E6
E3
0D
EC
EC
EB
12
05
08
30
20
22
ED
E6
D9
07
FE
03
E4
EC
FE
05
08
14
04
F4
04
09
F2
FF
E4
DC
DC
F3
13
FE
FD
F6
E7
1B
21
0C
03
FC
E7
13
01
E2
F3
FB
04
EC
FD
10
14
0A
2C
FB
FA
FD
01
07
F6
01
0F
F3
FD
EF
EE
FD
FB
06
EF
E9
D5
08
02
10
13
0F
07
0D
1D
20
1A
07
14
FD
ED
05
FD
FC
F1
0A
00
EF
0B
16
0F
13
13
0A
1D
15
22
C4
E9
DB
FB
02
20
00
F3
E9
FA
00
0A
07
0C
F5
F3
EE
DD
0F
13
2F
07
0D
09
0B
2C
2E
E7
FA
03
05
18
10
1C
27
1F
F6
F7
EB
F1
07
01
05
F8
15
DF
FD
03
1D
18
3B
E2
EE
01
16
07
10
FD
13
02
E3
F3
F0
0E
1B
10
05
E1
E9
1E
00
F8
F5
12
18
03
14
24
FC
04
F1
11
F8
FA
00
CB
EB
11
0D
06
FE
F7
D0
E8
FE
ED
E9
ED
FE
05
16
03
D8
CD
C9
1B
22
1F
01
17
28
E1
E1
DD
01
F5
F8
0C
03
FD
F9
14
C7
0C
ED
F5
F2
F1
00
15
FD
FE
03
10
F5
07
0D
0C
02
09
05
C3
FD
D5
0D
FD
0D
1A
F9
F6
FB
0A
1E
05
19
1D
F8
17
05
F9
05
1F
04
03
03
AB
06
FA
FA
F4
E6
FF
08
05
09
29
F5
09
13
2A
01
FF
17
FB
FF
F3
0F
F9
F6
0F
EA
FE
15
11
21
FC
0D
02
05
F7
FE
0C
FD
06
04
05
FD
04
F9
EB
14
0F
34
0C
06
05
12
1E
27
E7
F4
FF
E4
0C
16
25
21
1F
F3
FB
ED
F3
07
0B
F5
FE
1C
D9
F1
0E
14
11
32
E3
F5
1E
13
0D
0C
FF
07
0C
EB
F4
FC
15
18
0E
FD
F6
F7
21
0C
F4
F6
03
11
06
0F
1D
FA
03
F6
12
FD
F6
FB
D2
DF
0E
03
17
FF
F9
D9
EA
FE
F8
E7
EC
F8
02
0F
F8
DD
D0
CC
1B
2C
27
F7
1B
29
ED
E4
DC
FD
F5
F9
FD
07
FC
EC
1B
E3
07
F6
E8
EC
F8
03
18
00
FD
FF
0A
F2
0C
05
12
04
07
0E
D1
F1
F0
0B
FB
0C
16
01
F4
F5
03
12
02
20
0F
FE
11
02
F9
05
10
07
FB
0E
B8
ED
F0
F1
FE
F4
F6
0B
0E
02
25
06
0D
11
16
02
02
0F
00
0A
0C
0C
03
05
13
E9
EB
18
12
13
F4
02
0A
FE
F8
FD
13
00
07
B7
B0
E4
11
EA
E1
BF
F8
F5
0C
14
2C
0D
FE
1D
EB
F2
AC
11
08
D9
19
1E
16
01
FB
0C
AF
D9
18
25
11
E2
32
E6
B4
D7
FB
F7
23
14
0F
E2
F3
FC
1B
07
12
F8
FD
F9
0F
16
DC
00
05
E7
FE
07
D0
DA
DE
F8
BF
CD
0D
06
D2
FB
E1
1F
23
E5
DA
C5
09
00
DE
25
0D
EF
3F
22
25
1D
25
35
E8
14
2F
FA
F8
C8
2E
09
F0
02
16
D7
DA
DF
E1
F5
FB
1C
0D
FB
F4
FB
07
E4
F3
EF
0A
E6
02
01
10
1B
CF
F3
F4
EB
16
0C
00
13
05
27
F0
1B
F7
16
0D
16
F6
03
14
09
C7
EE
9A
E8
01
1F
26
24
1D
33
FD
5D
2B
29
E6
29
16
E8
05
EA
03
D9
E9
FB
D0
FA
5C
2D
EE
02
FF
1B
15
28
04
4B
27
0C
25
16
E8
0C
0D
04
D1
CA
B7
E7
14
FD
E1
0C
30
ED
0C
19
19
0C
11
04
FE
FD
EE
FB
D3
E7
EB
E9
02
27
42
1D
F7
1A
EF
EA
EC
01
FD
00
E4
07
F6
22
2F
24
06
05
13
E7
E6
F9
FA
1B
29
0F
0D
20
FB
0E
FD
F4
F5
FE
0D
1A
2B
FF
12
19
0D
2A
26
FE
02
E4
DF
09
F1
0D
0C
0F
E6
F3
E8
05
FD
31
EA
E6
FD
09
08
17
01
00
09
D8
FD
F9
D8
EE
EF
46
31
28
0E
07
11
01
05
13
0D
06
07
EF
FB
05
29
20
09
01
0E
10
0C
23
13
13
E6
12
DF
DD
0E
F2
ED
16
05
02
00
FA
F8
D5
ED
EB
ED
E0
F8
0B
FD
07
1F
E4
0B
F8
FE
F0
06
E3
0F
06
1E
25
06
05
0E
FC
0C
02
FE
E8
FE
F4
02
E9
EF
FC
E8
F6
F8
D3
DF
FC
F5
EF
F2
FD
EE
3F
13
FB
F1
F7
F8
F1
F5
FF
EA
F4
E0
16
15
03
F5
01
F0
FA
F8
1C
34
F9
10
06
12
EB
0A
FE
FE
D7
D8
E0
F3
1C
0D
10
06
28
F7
ED
E7
04
EA
09
01
0A
F4
12
17
21
ED
EC
04
E9
D4
EF
13
1C
1E
0C
1E
20
F3
04
FF
E6
01
0B
14
07
20
0C
1A
1D
06
1D
FF
F4
01
DD
EA
F1
08
05
0A
0F
07
DF
0A
06
01
18
EA
F1
D1
2D
02
22
14
1B
01
EB
FD
13
D4
DA
F4
28
20
12
0A
02
F1
02
13
0E
FD
FF
0C
17
0D
13
21
27
10
05
13
12
22
03
07
0A
FD
0A
D4
E2
D2
C3
E2
E8
07
FB
06
E5
F0
D3
EA
FC
FF
E4
E9
F1
0F
05
0A
DE
F9
18
F4
F4
F3
E9
FC
0C
0A
1F
0E
F4
01
03
1C
F8
01
E5
F6
F2
EB
FA
F0
FA
F1
FD
D7
DD
D7
F8
F4
D6
0C
17
0F
0D
12
F5
F8
FF
00
F9
E5
F8
EF
EA
E5
16
14
09
FC
F6
F0
EA
E3
E9
0D
04
FD
DF
CD
DF
F9
E8
E4
01
03
15
1A
FF
01
1B
EE
13
06
06
1D
32
2E
23
FD
05
E7
FF
20
37
D1
02
E3
1F
FD
1E
F7
1C
F2
F9
B7
CD
07
F6
E9
EC
0A
F5
39
46
35
F8
08
17
00
20
13
EA
FD
18
EC
E2
E0
F1
EA
DD
FF
EB
01
08
24
F2
13
09
00
26
1F
1F
FD
E4
F8
10
11
1B
FA
EA
01
E5
F6
E2
DC
F0
F3
E3
DD
F6
FC
FB
03
FD
E6
EA
0F
0B
11
1F
17
07
03
FC
EA
E8
D5
C5
0C
14
1B
E0
DA
F2
1D
16
00
FA
EA
FD
E9
02
F4
24
35
25
1F
15
0A
06
03
F0
12
F7
FE
F9
11
25
22
08
10
F5
DB
E9
28
2E
2B
0F
24
1F
DD
FD
F2
01
E0
F1
0D
1D
2D
14
16
0C
03
0C
1B
17
37
2D
DF
00
0F
CE
E7
EB
2A
1A
F2
26
23
27
E6
D7
D6
D5
DE
11
19
EE
E5
C1
F5
E5
07
FE
1D
0F
ED
1A
DA
FD
A4
07
ED
B6
14
15
26
13
ED
03
93
D5
26
37
11
E0
1B
D1
A2
EE
07
F7
20
0E
18
BB
DD
E0
F6
F8
0E
09
1A
D3
35
35
DA
20
1D
04
E7
FF
D5
E5
FB
46
B8
E3
17
02
D8
F3
E6
3F
50
DF
D7
C1
1B
18
DE
42
14
E6
37
0F
26
D3
13
22
FC
0A
1C
05
FB
CF
1C
1B
F7
F6
20
DD
D8
DD
EC
EC
F3
10
37
00
FE
05
F7
F3
21
F8
22
F4
07
FA
09
15
CD
F8
DD
E5
1E
FA
F0
FB
14
1B
FB
22
05
08
13
18
F8
17
08
0F
CC
CF
AC
EE
D9
26
27
2D
2B
22
15
39
41
18
FA
30
31
ED
0D
D9
FE
E7
E8
02
CD
E5
5C
39
F7
0C
FE
1E
1E
18
07
5E
23
04
22
0A
04
1A
21
08
D6
C5
AF
F1
11
03
BA
0B
36
E9
E5
0A
03
09
AC
F1
10
2F
F0
06
00
B5
DA
FD
F2
03
08
2E
F0
F8
0B
E4
CD
FF
EE
0C
1B
01
FB
F4
16
E3
FF
DC
00
1F
11
03
10
17
25
EE
06
F6
18
FE
F4
E4
EA
EA
FE
FA
D3
0D
0B
0F
21
0C
09
FC
33
0B
F4
0E
04
FB
25
33
19
2A
2C
2B
31
39
21
23
2D
CC
EE
DC
24
12
F6
E7
E0
E9
1C
F4
F2
39
3A
28
DC
F2
FC
FD
13
13
10
F2
14
EC
EF
EC
0A
09
0B
26
22
1E
16
0E
EF
1A
25
12
1A
FA
DF
1D
14
2F
07
06
01
C2
E9
1D
13
21
2C
02
12
FD
16
28
05
EE
17
14
FF
FD
D3
E2
C9
E3
2F
10
D5
00
0B
17
13
F2
E4
02
E1
DB
03
12
12
0E
FB
19
18
0D
03
0C
00
EA
0F
FA
DA
E7
FE
EE
F6
E7
1B
FE
03
08
CF
D7
FD
0F
30
3C
F7
14
13
06
0D
EB
E3
FA
EF
10
15
34
14
12
05
24
28
24
F8
FE
10
00
09
10
18
14
16
F6
0B
E9
F8
F6
FE
1D
00
13
D4
EE
EA
1E
02
2D
E3
DD
FE
1E
1E
2A
F3
0A
09
E6
F4
E8
11
16
0C
00
EC
EF
30
F9
E6
F9
F8
21
FD
04
1B
11
0A
F6
05
FC
F3
0F
DA
EF
00
01
F5
0E
00
CD
F6
DF
D4
F9
F6
05
08
16
07
E4
D1
D8
05
12
0B
03
08
1C
F2
E9
E6
03
FC
0B
18
15
09
FD
15
C1
F4
FA
E3
F2
F5
0A
1A
14
06
09
1A
E9
14
16
0B
0D
00
14
DA
F3
D2
0C
F7
02
12
E3
E2
0D
14
18
07
0D
25
FF
0E
01
EE
09
20
0B
0B
0E
C4
FD
FC
02
04
01
09
0B
06
11
0D
FC
0B
05
12
E2
F2
10
EA
04
F3
01
07
FF
20
F3
05
24
1A
1C
FE
07
FC
07
F0
F4
01
06
08
04
FB
E7
E9
03
F6
0C
1A
23
1F
0C
11
0C
24
1A
FA
F7
05
02
ED
0F
0A
09
03
E0
00
FC
06
FB
FA
07
1D
13
E7
F5
EC
1B
F3
0C
F3
F3
F6
26
2D
1C
E3
FA
01
EB
01
EB
08
0C
06
FB
07
05
17
F9
F6
EF
00
0A
FF
0A
1A
F8
03
F6
F7
01
EA
07
F1
F4
04
FB
E9
07
FE
EB
16
F6
F3
10
FA
0D
08
15
FF
DB
D9
E9
05
08
F3
FA
09
FC
0A
F7
E9
E8
0E
11
02
F7
0B
03
15
F3
DF
03
E3
F8
FF
F2
28
2F
11
04
09
F3
14
15
1F
28
11
04
F7
EF
EC
F9
00
02
F4
E0
ED
FF
FC
11
0E
09
18
15
11
10
E8
0B
11
07
12
0A
EA
F1
F3
0F
0A
12
01
FE
FA
01
FA
08
12
06
03
DF
ED
00
F3
0B
F7
EA
14
18
12
F4
17
0B
08
04
F5
F7
DB
F7
F1
FA
03
0E
FE
E4
17
00
0D
EC
EE
08
04
FA
CF
D8
D2
F6
09
F9
14
20
06
D4
E8
E4
0B
00
F9
02
19
F3
15
F9
26
DA
E6
FC
0D
12
1D
00
F4
20
1B
08
18
E0
CB
DF
15
1D
1D
F2
F2
F2
05
FC
07
FB
E2
EB
09
F9
03
0D
08
0F
01
FE
06
E1
FC
FF
FD
E6
CB
0B
F5
00
1C
0D
1A
E7
EF
EF
FA
00
FC
F0
E6
F4
08
F0
0A
FC
F7
02
14
1D
11
05
25
1C
F3
00
17
F4
D6
EF
F8
09
E9
F1
DC
D4
08
EB
1E
EC
DF
FD
0A
FE
EC
08
07
EC
05
0A
E3
08
15
2F
E7
E9
F9
05
04
FB
22
07
F6
E7
EF
E6
20
07
13
EC
FD
F8
17
12
1A
09
F6
04
C3
EF
F9
0B
F8
D6
F8
21
14
04
27
1F
FC
03
FC
0A
00
11
05
00
03
EA
F2
F7
D5
C5
CF
0C
1D
22
EB
06
08
F8
02
01
0A
00
14
FB
FB
16
36
0B
10
06
01
EB
0A
00
FB
E5
D8
E3
F0
18
FD
0C
FE
0B
FD
F6
E5
F9
09
0C
F8
FF
FE
1A
10
1B
FF
FA
F9
EE
CF
F0
1E
12
12
05
12
10
EF
FE
EE
F9
F3
FB
0C
FE
0C
17
2F
22
08
1D
03
FD
F4
F4
E9
DF
17
FB
09
09
0F
EE
0F
12
09
1B
EF
F2
CA
22
19
14
18
1B
12
F2
F2
FB
E0
E3
F4
20
16
1C
0B
06
F2
01
11
0A
EE
0A
01
14
0D
15
04
0C
12
FB
13
08
1A
03
02
FE
06
FC
E2
F0
CC
D3
D6
DF
04
FF
F9
EB
F8
DE
E6
FF
F7
F3
F4
EF
16
1C
16
F5
FD
14
EF
E6
F7
E4
F9
06
0F
10
0E
FC
F8
04
07
F0
05
EB
EB
F0
F6
FC
ED
F8
EE
FD
CA
DF
CB
F2
E3
DC
0C
0A
09
E3
06
EE
FA
07
FA
F5
F1
F0
00
EF
EA
1D
12
FD
F7
F3
EE
15
1F
0E
E1
FE
F9
EC
09
09
F1
EF
FD
22
F8
24
28
1E
C8
D2
EB
EE
F5
FE
14
F1
16
E9
22
0E
0C
C7
D9
EE
C3
D3
DA
26
04
1A
F5
EA
E3
F0
00
D9
1E
1E
30
FC
12
34
E3
E8
CF
D3
D8
CD
0C
E1
00
26
11
44
FF
DB
0D
1B
01
22
0F
05
17
22
0F
E6
E2
24
E2
F5
DB
C7
F5
E1
DA
14
F7
12
0D
09
09
1E
FB
1B
F1
F8
EE
0F
F7
02
E7
08
FB
06
F8
00
0B
FA
FC
F3
C7
CF
12
C9
E4
0D
27
F8
27
21
F3
28
30
FF
CA
E2
D1
FA
21
36
22
F7
F2
19
05
F6
FB
DF
D5
04
FD
21
23
18
1C
F3
F9
EE
C0
C4
FA
E0
EB
02
F4
13
0E
28
0E
02
15
17
31
21
24
EE
D7
17
F5
09
12
2B
01
FB
EB
C1
F9
F7
1A
2D
DC
20
2F
18
06
ED
12
03
FA
18
EB
F0
28
EA
DF
E5
04
F1
02
D1
D5
E7
E2
F8
F0
FB
06
08
17
25
23
0C
F9
15
1A
03
2B
38
45
3C
04
FB
EA
E9
12
1E
CC
04
E1
05
0D
08
05
10
FF
F4
B6
DD
14
03
F8
F7
FF
FA
2D
40
3E
FF
05
21
12
33
0B
02
E9
02
E7
DA
E5
E6
E4
E9
0F
0B
0C
FA
14
F3
17
1E
E7
23
1B
24
2D
07
06
0D
1C
27
18
06
0C
EF
F5
F2
D9
E7
F9
F2
EF
E9
09
F7
F5
05
F0
06
13
F8
23
0D
14
0B
0C
F5
E5
09
F0
C2
03
12
06
E0
E4
FE
09
24
EC
FD
EA
F3
F9
14
03
26
4C
36
23
22
1B
11
08
F9
FA
F0
F9
15
13
37
13
0B
1B
F8
D8
BC
11
2B
35
16
27
13
CB
ED
E9
03
EA
E4
04
17
22
19
16
1C
11
12
2D
10
2A
15
D9
F9
00
F1
F4
F1
0B
09
EB
21
24
25
D8
E7
DD
14
FB
F7
1D
18
23
08
FA
F9
1E
FC
0A
E9
E9
F4
02
06
06
F9
F1
F0
E0
DC
DC
FC
01
16
16
07
16
F7
0A
FF
E9
F2
01
DF
CF
C9
14
04
E5
EC
02
F2
EB
F1
F8
10
0C
10
06
FD
EF
0F
0F
0C
2D
03
00
E9
E2
DD
EE
E5
F2
FE
F7
FD
FE
E2
01
11
23
24
06
F6
ED
31
08
1D
00
11
FE
0A
0B
13
FB
F6
FE
14
1A
1F
EA
D2
D6
F6
06
EF
16
11
06
06
FE
0D
E9
E5
D7
F2
F4
0A
05
FC
0E
F2
04
FF
F5
06
F2
F3
DC
DF
00
FA
0A
FD
FD
F2
EE
F3
01
F3
F0
FC
16
09
0B
FB
02
13
E4
F3
0E
11
F3
09
DC
ED
DB
E9
06
ED
E5
F5
1B
EF
F7
07
01
04
F9
FD
E8
E3
E9
08
1C
F1
DD
EC
05
03
14
F9
FB
EC
20
08
14
00
DE
F9
08
07
10
F7
F7
02
01
00
F3
E7
F2
E6
08
0A
F7
D6
DD
D5
F6
16
0F
0A
F7
03
D9
10
32
FF
F6
15
30
08
26
14
11
16
F2
F8
EF
02
04
24
EC
EF
EC
14
E8
FF
02
14
29
DC
E9
F4
F2
17
11
E2
F5
D6
19
0F
0C
10
09
2E
F1
1A
F5
0D
06
19
FF
D8
F9
DF
E3
EB
FF
10
12
FD
F1
F4
0B
00
FD
17
19
1A
33
3B
1F
07
04
19
26
0F
21
02
01
12
FD
EE
15
DA
D6
D9
F3
E6
CE
09
F7
0E
0F
0A
17
0A
09
14
0E
09
F8
F2
F1
F3
0B
20
21
E0
F3
06
0A
19
07
0A
00
08
F6
F9
00
20
23
10
0E
1C
20
FC
FA
D2
E7
E9
C9
01
1D
2C
23
13
29
00
16
E5
ED
07
08
13
17
10
D7
01
F5
FD
E9
C8
ED
24
15
1C
10
0A
3F
22
26
D6
14
25
04
F6
17
1A
F7
DA
F2
DD
D8
EE
18
16
DF
DC
D3
F6
FA
1C
2E
09
10
01
FB
EF
04
F8
EA
D4
DF
EB
FB
26
27
1D
05
18
FE
EA
E9
05
F3
15
E4
FF
ED
1E
26
25
FF
FF
05
E0
E6
EF
1D
19
29
1D
18
20
FD
F9
F9
00
04
FA
1A
10
2A
0D
1B
22
0E
23
11
F4
0B
DA
DE
F9
FF
08
0C
0A
FE
DC
FD
F9
FE
26
F5
EA
E1
26
13
1D
0F
14
0C
DD
F9
FB
DE
DC
FA
39
27
1C
17
0B
04
FC
14
17
02
FD
F3
03
08
10
2A
26
0D
03
10
15
16
22
11
FC
02
0E
DA
ED
E1
C7
E0
06
FB
F7
FD
ED
F2
D5
E2
F0
F8
DD
FE
F5
09
10
19
D6
F9
0F
ED
E9
F3
E5
FC
FC
15
20
07
02
06
03
0E
F1
F5
DC
F3
F5
E9
ED
F2
E9
E4
F7
E9
DB
DD
F8
EC
D6
06
0B
00
22
0A
EB
EF
FC
02
F8
E6
F4
FD
F1
EB
24
1B
03
F9
FD
EB
1D
22
12
0B
F5
E4
0D
F7
EE
E4
F3
16
14
0F
31
18
1D
D2
F2
F0
D4
FF
FF
0E
02
10
F0
22
F7
FB
E2
EF
C2
E9
DA
D3
28
10
02
F4
E4
C2
E7
01
E6
1A
26
FE
12
EA
F4
D1
DC
C6
CC
D8
CD
FD
E8
12
2D
29
4C
10
F4
F8
0E
F0
36
27
04
03
05
0C
00
ED
1C
F1
BD
D5
E6
F1
E9
D3
FB
F9
F6
3D
15
15
1A
FA
15
05
EC
DD
03
EF
E1
03
08
19
09
FB
FC
F6
F1
10
D2
D4
FD
D9
C2
17
10
17
15
2F
2C
FE
25
40
1B
D6
E7
E5
08
0E
31
15
EA
C1
FF
09
0F
DD
D2
EB
05
05
41
2D
12
18
FC
F5
EA
C2
C7
D7
E7
E1
06
33
26
FE
20
F7
FC
09
1F
1C
20
02
03
EF
17
04
08
0A
22
1C
E3
C4
D7
02
F6
3E
01
E2
19
29
24
22
00
0E
02
18
3B
FC
EF
20
8C
B4
B0
1A
13
ED
BE
D1
C8
07
14
00
0E
27
12
FE
16
DA
1D
04
FA
24
14
55
17
28
27
D4
CE
E1
F2
2E
2C
E0
FC
D1
06
E4
D9
20
34
30
FE
CD
F0
16
11
23
DD
01
F7
26
16
0A
F9
14
09
01
28
FB
D5
B3
DA
AF
81
B5
E9
C7
EB
E8
0F
0F
E7
F5
DD
04
05
DA
34
10
15
59
3E
33
06
28
45
1E
1A
48
08
F1
F7
09
09
18
C1
D4
E5
EF
D4
C9
02
05
0C
11
F6
11
03
03
E9
22
FF
F9
03
E2
D0
1A
28
03
D0
FD
02
22
26
E6
1F
00
05
DF
F3
E9
48
43
29
02
10
2A
F0
F3
BE
D4
D4
DC
14
2A
33
30
17
38
36
0C
E6
20
2D
1D
10
3C
20
DB
F5
ED
FA
C7
D2
2B
3D
13
07
1B
21
29
34
46
27
39
40
EA
EF
ED
09
E4
CB
DB
DB
BD
09
39
31
D7
DC
E9
0E
17
FE
08
EA
DC
07
1D
F1
E5
E8
F3
02
08
04
11
29
09
CE
01
08
0C
0F
03
02
1E
02
20
07
0D
01
D8
15
F0
F5
13
15
FA
23
F2
ED
06
E3
F4
E4
1C
22
1F
F9
F4
FC
FF
04
06
E7
DD
DE
14
E9
F7
05
1F
16
F8
F4
20
EC
F8
F9
14
00
E3
00
DD
D7
0E
15
19
08
E8
D5
DD
0F
F2
EA
DF
F7
07
0F
F4
F2
F3
FB
15
21
FC
0D
28
2F
F4
FE
07
F4
E5
FE
03
0E
FB
F1
01
D6
0B
D9
0A
E7
01
F2
06
F9
D6
04
1D
E6
F8
15
05
F4
00
0F
CB
F3
D8
0C
0A
07
2A
FD
F7
01
03
02
00
19
0F
DE
EB
F4
F1
FB
19
08
F9
FE
BE
05
EE
F3
02
F8
EA
26
2D
26
2F
01
D9
0B
10
0D
FA
04
F7
FA
07
F0
F2
FD
F5
DE
D5
18
18
21
F1
07
09
F9
FA
18
04
03
15
E2
CB
C0
14
17
FF
D2
E6
ED
E9
05
16
FC
18
0F
E8
09
41
16
0A
2F
3D
0B
2F
F8
17
0E
23
02
DD
E1
FC
3D
D9
F7
13
19
E2
15
0A
11
2C
ED
E3
F8
07
1B
0C
E6
F2
E1
E1
08
17
13
13
17
06
1F
F4
DB
D6
C8
F4
B5
C1
D5
D2
E0
22
F5
F0
E5
07
FB
04
11
27
F7
06
22
4D
34
36
1A
F6
1B
31
FC
11
EE
03
07
09
FC
20
DA
CE
E4
0A
F6
C5
27
0E
16
EB
F3
19
03
1E
15
F5
FE
E0
16
F0
D3
04
1B
3C
E8
0A
02
07
1C
0A
1F
FC
13
F0
DE
FF
1C
2D
30
1C
07
1F
06
04
E7
EF
DF
D4
FE
0F
2F
1E
11
39
F7
E9
E8
FD
13
16
0D
29
2F
D2
F5
FE
25
07
E7
D8
23
20
23
1F
08
43
20
3A
D2
15
23
EB
D9
E6
D2
DE
C2
09
0A
FB
04
18
31
0B
DE
C3
FB
01
FB
08
04
F4
05
0A
02
01
FE
11
E1
EF
F2
06
0E
F7
06
02
FC
F5
EF
F3
07
0D
0D
0A
00
08
0B
09
09
09
FC
03
EF
E8
E7
0F
0C
03
F1
03
F5
FA
F9
08
02
05
08
01
06
0B
02
08
0D
04
08
14
EC
F7
F2
EE
02
FA
FE
10
0B
0D
19
1C
FB
13
0A
FB
01
F5
0F
0A
11
FE
0D
05
01
00
0F
F1
E9
E8
0C
10
0C
F7
FD
FA
FA
0E
06
06
07
0C
14
06
01
FB
03
FC
FD
06
05
00
00
01
05
0C
06
01
F1
F6
F9
E9
EF
06
FE
FB
EC
FD
F3
0D
FD
13
FB
FA
00
05
0A
0E
09
03
14
F7
FE
00
F4
FB
FD
F3
FA
F2
F3
FB
01
0B
FC
FA
04
F3
F5
00
00
03
F0
F3
ED
F5
F6
ED
02
ED
E0
0A
18
0E
F1
07
FA
01
09
08
F7
F6
F6
F0
01
F3
0A
0B
07
03
06
0A
FC
F2
FA
23
15
0F
18
0B
05
F7
F8
02
CF
E0
E2
FC
F7
F8
0E
07
11
FA
02
F7
F7
00
11
0D
0B
FE
05
FF
FC
F7
FC
02
E0
E3
DE
20
18
05
21
15
1C
F7
F0
F8
D7
EC
EB
0A
04
04
0A
02
15
06
1C
03
03
08
DB
F9
FA
FD
FA
19
09
10
02
18
FA
06
09
FA
FB
EA
15
07
1D
1A
10
F9
D8
F3
F9
E9
EA
00
18
18
0F
10
03
EF
F8
11
01
0A
0D
0D
0F
0F
0B
06
0B
15
EB
0B
0F
07
FB
07
06
14
10
E3
DA
D5
CA
ED
E1
F9
17
21
F7
E6
CA
F1
04
11
E3
FC
E2
0C
0F
07
09
F9
0E
E2
ED
E5
F8
FA
02
F8
0E
10
FB
EE
FF
0E
04
F7
EC
E4
03
00
05
F5
EF
EE
08
F3
E6
E9
F4
DF
DB
07
0C
15
01
01
FB
FB
FC
15
E1
F5
F7
EC
F4
F4
12
0B
EF
13
05
0F
FE
04
F4
F1
04
23
EC
10
14
1A
13
00
FB
0C
F3
ED
E7
37
FF
EF
1B
1A
E6
02
F3
10
FE
24
FB
FC
02
0B
23
06
FE
F7
F5
FE
F3
ED
FB
0A
0B
13
0F
E9
04
09
ED
FE
ED
00
00
11
07
19
2E
EA
EF
E8
21
F9
04
2E
FC
02
FE
10
F9
13
F9
0E
10
19
09
FA
EE
24
EF
F9
12
06
04
04
06
FA
00
2E
0D
00
02
06
0D
06
EA
24
EC
E8
E7
01
FA
D0
10
0A
10
04
0B
0D
1E
24
20
F9
E2
D9
DD
09
08
05
14
41
0B
0D
FA
15
08
0F
14
FC
0C
F2
F7
FF
0B
FA
0C
0D
FB
F9
ED
0C
EB
0D
02
DA
0F
16
23
13
05
20
FF
09
04
F3
F6
0A
0E
07
22
ED
00
FB
EA
06
F0
C8
06
28
F2
EF
F7
2C
16
11
C6
02
0E
F8
FD
14
E9
FF
E5
09
F5
F3
EF
03
0D
FE
EC
DA
FA
09
0D
05
0D
F9
F0
FA
09
F3
11
EE
F6
03
D0
C7
CD
03
15
EE
04
EE
F0
E8
CA
E6
D8
E6
FF
0C
15
1C
02
FE
07
0D
07
01
1F
0D
10
16
11
1D
08
F9
15
1B
0E
07
05
DF
DB
FC
14
1F
0C
E0
01
F2
10
06
05
F6
FF
0B
01
FB
06
0B
E7
F9
14
0F
04
E6
EC
F4
CE
F0
DD
E9
06
0B
FC
C6
EE
EC
F1
F0
05
19
33
F1
FC
17
F4
F3
16
F9
F5
FE
17
FB
02
08
08
F2
09
00
FA
14
18
09
FC
0E
28
03
E6
F1
23
12
20
EB
00
0E
FC
04
FF
FA
FD
00
FE
CF
FD
FB
DA
0D
00
0B
F0
07
12
17
F1
01
E2
F6
1A
F8
0C
1A
0E
FF
F1
EA
D0
F1
F9
20
16
07
F8
FE
04
E4
C4
CF
04
FA
F5
EE
F6
E8
E5
EF
19
12
FB
00
FC
FE
0B
0A
F0
EF
F9
EE
07
24
07
FE
0B
10
14
F8
DD
CF
0A
12
F6
EA
EA
EC
0A
0C
01
0E
1C
03
C9
EA
00
07
02
03
FF
10
F4
16
08
0B
02
DA
18
E8
F6
08
14
07
2D
F8
F6
07
D9
F6
E6
19
19
1D
FA
F2
F6
FC
F8
04
E7
C8
E1
13
E7
F7
06
1D
17
00
FC
32
F2
F8
FE
02
F0
D0
03
DF
DA
11
09
0E
EB
E1
D8
DD
F9
E8
F6
D5
EC
04
FE
F7
EE
DE
F6
16
2A
14
10
24
31
F0
EC
0D
F4
E4
F6
0F
12
FD
E9
EB
E6
03
F2
16
DA
EF
FA
02
FD
D6
12
1D
FD
EF
FB
F0
FB
0E
20
E4
FA
DD
0D
F0
F5
35
01
EF
FB
FB
F1
04
13
0E
EC
E6
EA
01
0C
20
07
EE
FE
B0
FE
FA
F3
F3
DD
FE
24
2D
1E
31
03
DB
03
17
0E
0D
10
FF
F7
06
E2
F0
F8
F8
D9
D0
10
1C
29
F2
07
0B
FF
F7
0C
06
11
18
03
F4
11
2C
0B
F8
17
F6
EB
09
05
20
D6
D8
EE
F7
06
FC
0F
FB
0C
F6
FE
06
F3
1A
1C
04
0D
0F
02
F5
F5
F2
07
F8
F0
DB
DC
12
16
22
26
0C
12
F7
EC
FD
F7
EF
0D
08
FC
0C
07
09
0E
0B
15
F5
E9
E5
E7
D6
DE
0E
F8
02
0F
06
F6
13
14
0B
13
F1
FB
DE
24
17
28
FC
0B
18
F7
07
0E
ED
D7
FB
15
1E
11
FE
09
ED
04
08
0B
F9
F2
F1
1A
FC
10
00
0B
23
EF
0D
0A
0B
0E
07
09
05
03
EC
DB
E2
D6
D5
D4
F5
18
08
E8
EB
D9
E2
0B
10
EB
04
F6
0B
09
09
E7
0B
1B
E2
E1
F5
FB
F6
05
05
02
09
FE
ED
F0
11
12
EE
E4
08
F1
F4
00
E7
FD
E8
F0
F3
E7
DC
EA
EE
D8
0C
23
2C
EE
EF
F9
FB
0D
13
ED
F0
F8
FC
F8
F1
17
0C
FC
03
03
F8
25
08
13
CA
F1
E1
E6
09
27
10
02
EC
28
07
0C
17
26
E3
C0
EA
08
FD
F6
1B
03
1D
F7
08
14
0B
F1
DE
0E
C4
DF
03
14
F1
36
E3
D9
21
0E
02
0E
1E
09
21
F9
07
16
20
F7
E1
C3
D3
D9
29
F0
DE
02
07
3D
F4
E1
1E
17
15
08
02
F4
F5
16
DF
C6
E9
0D
F9
0F
E4
C2
E5
E1
E9
FE
E3
F6
0F
1D
07
FD
DE
FA
FF
1C
0D
14
08
19
EB
F9
E2
14
F7
19
17
21
16
F2
F0
BE
13
D9
DF
EA
19
FD
0F
08
E5
23
2E
FE
DD
02
EC
E1
11
39
EF
02
F5
0F
05
FA
21
E9
C9
02
02
0D
FF
13
15
ED
EF
DD
D8
E6
26
05
04
16
B2
FF
F4
07
03
FC
FE
17
38
23
26
EC
E4
0C
E5
F6
2A
23
FC
09
EB
EA
EF
02
14
0F
D8
31
31
15
02
EF
0D
07
DD
11
06
FE
1E
25
17
15
F5
EA
DC
00
0A
FE
DA
EA
00
0A
FB
26
3B
17
CE
C6
F2
DD
F5
0B
09
FC
25
EC
2A
00
0C
AB
E1
D2
D4
EB
E1
16
09
10
F7
D1
DA
EA
E1
D4
2E
23
21
00
16
05
FC
E5
E1
D3
E4
D4
FC
D2
01
14
01
43
FF
EC
1C
04
F6
24
0B
FA
15
0E
14
D6
F3
18
FA
EE
DE
DA
04
E5
D6
11
FB
0E
1D
F0
FC
14
F6
06
08
FB
ED
13
00
FB
FD
11
08
0F
E7
02
FF
0F
08
EA
C2
CA
00
D2
F1
00
0C
EE
25
26
E7
24
2F
FD
DA
E7
C4
10
0B
3B
0F
FA
E8
21
07
DD
03
F2
EA
1E
FC
24
0C
21
12
F3
FE
F1
DE
E3
FC
ED
CE
02
03
25
11
36
21
D6
1D
34
38
17
32
FC
D6
04
01
F7
0F
25
FB
E2
03
C6
F1
F2
FF
16
E6
1D
26
0F
05
FB
0C
F2
FC
1E
FD
ED
27
0F
11
F2
FB
EB
E0
01
EE
F9
C8
CC
C3
E5
F1
FC
12
05
F0
C8
EA
F7
FB
F1
E1
0E
34
FF
1A
E3
18
DA
F3
EC
0B
16
00
0F
05
14
22
F9
D9
E8
C0
B9
1D
17
18
E2
F1
F1
FE
03
F9
FC
EA
EB
F4
F4
0D
0F
08
03
06
04
16
E5
F7
10
E0
C5
C8
19
07
FB
15
07
FB
D7
FE
D9
F1
01
F4
11
E7
F5
01
F6
F4
02
F5
05
2D
1A
FB
0A
19
FD
F8
0D
0C
F5
CB
E5
0E
14
E2
F5
EE
D5
FD
F2
29
F4
F5
EE
05
02
F1
1E
1E
E6
F7
14
E0
FF
13
0C
FD
E3
CD
1C
F7
EB
15
E9
07
E2
ED
EC
46
0E
1B
DF
02
F0
25
07
14
05
DC
F5
F0
0E
DA
15
FB
D2
FE
22
07
E8
1C
1C
F6
F4
0A
18
F2
08
FB
E0
FD
E2
0B
0A
E7
CA
BF
0E
F7
13
EB
0F
16
1A
12
FB
08
EF
0B
01
EF
EA
FB
FE
E3
0C
21
10
FF
FC
00
CA
D9
E0
18
10
F0
06
F0
07
F3
E4
DF
FF
06
1C
28
05
09
0A
17
03
0E
F6
09
EB
E4
E6
20
11
F5
D3
05
DF
FB
EF
05
01
FE
F5
F8
29
11
13
08
09
0A
14
16
EC
F0
F8
DA
04
FE
08
1B
19
15
2E
3E
E6
1F
18
06
FE
FF
14
01
1A
01
06
FC
12
01
09
04
DF
DA
04
13
0D
E2
EB
EC
06
18
FA
09
19
1C
FD
10
0C
EA
EE
E7
F8
16
09
07
03
03
02
0F
F1
F6
ED
D7
F9
E7
F4
17
FF
F7
EC
ED
F8
0A
12
15
F9
02
0F
12
08
FE
15
10
22
E6
FB
06
F8
F2
FF
DA
FA
E4
F1
F4
F8
12
F5
F5
10
EC
DE
16
14
11
F8
E9
F6
E6
E8
F3
FB
E3
D0
FF
1D
09
02
0B
FC
0A
0A
0D
E4
EC
F9
FA
04
06
FE
04
08
14
10
13
F6
F9
EA
F0
F7
F4
1B
1B
1A
0A
14
0F
0E
1E
29
E8
EA
0E
01
05
12
24
11
0F
E5
F8
F2
04
F9
F6
10
04
16
F0
FC
F4
16
04
1A
F1
F2
04
1D
1A
20
ED
F8
FB
DD
ED
E8
FE
15
17
FC
FC
FE
12
00
F5
F2
F2
0A
11
14
0F
F3
FB
EB
F9
F5
F8
F5
E4
F6
02
00
FB
F4
F5
FD
00
F9
F2
FE
03
05
05
0A
04
D8
D1
CF
0F
0F
EE
FF
0A
10
01
EC
E4
F6
F9
04
FB
F8
05
F8
14
EF
ED
F8
F2
E9
FA
FF
27
0A
08
F9
10
E2
1B
13
15
1A
0F
04
CF
F8
EC
01
FE
0F
FA
F4
F8
01
09
0F
08
0E
14
14
1B
11
EF
0B
15
04
07
01
DE
01
F8
0A
08
06
F5
03
F0
07
10
07
06
F6
11
FD
F0
F6
FA
03
F6
0C
11
0C
10
F7
0F
06
02
05
FF
00
01
FA
00
F8
08
0D
05
E8
B9
AC
04
00
0E
D4
EA
F1
F5
13
21
F5
1D
17
F8
FA
46
14
15
28
2A
09
27
F1
01
1F
37
F3
CE
C4
F4
3C
E0
00
20
22
D9
15
03
0C
39
F8
03
F3
0B
1B
00
E0
E6
E7
C7
FC
23
0A
0D
1E
FE
0D
E7
D4
BF
BB
F5
AD
BB
D4
D4
DC
1C
E7
F3
EB
04
04
FA
F6
14
EB
FC
24
59
23
26
1B
FE
21
39
03
0F
EE
FD
0B
00
08
24
DE
CA
D5
07
04
C0
27
0E
2A
D7
EE
11
0F
22
0F
F8
02
D7
09
E5
D6
15
16
40
ED
14
11
0C
26
18
2B
FB
04
F3
E1
EC
17
1C
2D
16
F4
13
F9
0A
E6
FF
E6
DC
F7
11
33
0F
19
32
01
EF
F6
F4
10
0E
07
2F
38
E3
03
06
1F
1C
F6
DE
2D
13
16
21
FF
46
28
37
C4
0F
33
EC
E5
EF
CF
DB
C4
FB
09
FD
E7
1E
35
1B
ED
D0
F1
11
0D
0F
0C
03
FD
01
FB
08
FA
E4
FB
E8
FD
04
12
2B
22
0B
22
F5
E5
E4
E2
F7
F5
F6
03
F5
0D
31
19
FC
F4
11
F3
F7
09
E7
1E
1A
FF
08
10
09
12
11
EE
00
01
F0
17
19
11
13
21
04
16
19
11
0B
F3
F4
15
0C
18
0E
1C
03
04
F5
15
03
1C
E0
E2
CF
04
FA
0D
07
12
FD
F2
FD
0C
CE
F0
EB
36
2C
1B
04
09
05
06
FF
19
02
FC
13
F9
01
0A
27
17
12
0F
0E
19
14
12
1E
F7
01
FE
E9
E9
F9
E6
DC
06
03
02
FC
07
F5
DE
F2
F7
F1
DE
FC
13
FD
F6
1F
E6
0B
07
02
EE
05
E1
0A
03
1E
26
0D
FE
0E
00
17
F4
FB
EB
04
F8
02
F1
FC
04
F0
F4
EA
EA
DE
15
FC
E8
FB
FD
ED
24
0A
FD
F7
F1
EC
EB
F1
FC
DF
D7
E9
10
11
11
E9
F5
E2
04
11
08
D8
19
2D
E2
03
27
26
09
F5
31
0E
02
01
04
DF
F2
01
10
0A
EE
00
09
F1
FA
0A
0B
08
0E
0E
18
CE
D3
BB
0F
00
26
09
E5
05
0F
19
35
15
FE
19
D9
F0
E9
1C
E4
F0
06
F1
D6
3D
00
DA
1D
03
1D
0C
F6
19
2C
15
0F
08
11
1C
0E
F7
08
F6
F6
E1
0E
ED
BC
FD
C8
C9
D9
E8
E0
1C
27
1A
05
01
28
F2
10
D1
0D
F5
0B
0B
25
FA
FF
0A
26
14
10
04
0C
01
D0
F5
E3
D5
04
15
2C
E7
2D
0C
1E
18
F3
11
01
F6
00
0A
1F
05
00
F0
00
05
EF
F9
CF
DB
05
FE
E8
13
0D
14
FB
FE
D9
E5
16
20
22
09
1E
DB
FD
01
05
03
2C
04
05
12
0F
06
E5
EC
12
02
D7
1A
29
D7
EE
D7
E6
02
03
07
18
10
2B
1B
0F
EE
F6
EF
06
F5
F9
12
01
08
CB
FB
14
16
FF
EB
C8
DE
D7
03
05
1B
0C
F2
13
E7
08
BD
02
E8
D6
24
12
28
1E
0D
06
97
DC
F5
26
1C
0C
F5
DB
BB
0E
00
E4
18
1D
1E
C4
DA
FA
E6
03
F8
E3
16
C8
3E
2E
F8
16
26
1C
EE
1D
EA
ED
FB
46
C1
E5
16
03
E5
E7
EA
31
4C
EA
ED
CA
0C
14
E5
43
1A
FD
3D
11
2B
D0
15
20
05
0E
27
0C
07
F1
03
18
06
D0
01
E9
D4
E7
E8
F1
EC
08
4B
11
07
07
FB
F1
25
FA
1A
FD
0A
F6
0B
0F
DA
E2
DD
E3
1C
05
F7
E5
0B
1E
F6
19
FE
12
29
06
07
1D
1D
03
EB
D2
C5
FD
D1
13
2A
39
3F
15
18
23
2C
FA
F2
31
18
08
11
FA
E9
EC
E0
F8
C9
D5
42
2E
08
28
F9
1A
19
04
0A
40
22
12
0F
10
FC
23
29
F1
DF
C9
AF
EB
19
20
A1
EE
26
E9
CB
B1
EF
FF
02
CB
E6
FA
18
24
2C
E5
0B
FF
E6
FF
41
0F
0C
1D
24
FA
2A
EC
02
02
1D
FB
D8
DD
05
1C
08
0B
0C
09
E3
E9
06
1B
27
0D
0F
14
01
06
0C
F7
D9
ED
DC
E7
11
01
0A
2E
FD
FA
F6
EE
D9
C4
FB
C0
CF
DA
E7
FA
05
E5
FC
E4
05
EB
EB
E3
F5
FA
00
11
35
36
2A
1F
FB
2B
36
18
18
FA
F6
04
0B
F9
34
EC
CA
F2
0A
E1
B0
14
0B
06
ED
F7
0C
02
01
0A
06
F6
E5
01
EA
F1
07
2D
3F
FC
0F
14
0B
30
18
35
F4
08
EF
E2
E3
13
17
21
FA
E0
FA
EE
0B
F9
00
E8
D7
13
1F
13
19
09
23
FF
0B
1E
EF
F7
0C
11
2B
26
D4
01
EF
F8
11
DB
DB
12
16
E8
FD
E0
3D
36
25
C0
1E
32
F6
F8
03
EF
F0
CA
F0
E1
D5
EC
02
16
10
E1
CE
F1
12
FA
1D
03
EF
F2
0B
FB
0B
F9
EA
FB
00
00
FC
12
1A
19
04
29
F5
E6
E6
E3
0A
ED
08
02
FD
1A
25
22
F4
F0
FF
F9
F9
0F
F9
05
17
FF
FF
07
0F
1C
1F
F2
FE
06
04
09
0C
15
13
1C
04
FE
19
20
FA
F7
FB
0E
15
14
16
1D
02
0C
F2
0C
06
15
D2
D2
C9
FA
F3
0D
01
07
06
FA
F6
0D
CE
EA
F0
34
23
22
FF
18
0D
06
FD
11
05
0E
10
04
06
14
31
18
09
06
04
0A
21
05
1A
0F
16
EE
E5
F4
EB
F8
E2
FD
FF
FF
F4
FE
F4
DF
FB
F9
05
E5
EF
07
FE
FB
14
EA
07
0E
09
EB
05
E1
03
10
24
31
1C
03
0A
FF
15
01
02
F8
05
FB
16
F3
16
07
02
F2
D8
F0
D5
15
FF
E9
FD
01
F3
0A
16
FE
E7
F7
E3
EF
F4
F7
DA
DB
E1
0E
07
17
F5
F1
DF
E9
ED
09
F7
01
05
E5
E7
F7
EC
E3
F1
FA
F9
F7
26
FC
E1
20
1B
3F
DD
F0
E7
18
0F
09
F1
0E
16
09
FD
20
05
01
15
0E
F7
12
09
02
F0
DA
C2
DE
07
1E
21
12
15
16
FB
EE
FE
31
1D
13
FE
03
0F
00
E3
E6
02
04
E1
1D
01
EC
FD
D5
CA
32
11
0B
14
F6
E0
D7
0E
D7
19
F8
01
F2
0C
FC
EE
E5
D9
27
07
01
05
E9
1A
0C
E0
FD
0B
30
01
DE
F6
00
EC
01
F3
19
F5
DD
0F
10
0B
1C
0E
FE
F6
F1
FD
10
11
09
06
04
FD
DA
F1
01
EE
04
0D
29
06
F7
15
03
08
F0
F8
E1
13
10
FF
F7
1E
FA
E8
16
18
10
06
07
21
FF
0B
07
15
01
17
02
14
ED
10
20
0B
EE
DF
FF
03
0F
E9
E6
E0
03
02
1B
0F
0C
0B
07
EE
C8
F6
EF
17
EF
F4
FA
F0
EA
ED
EE
E7
F4
F1
F4
FF
D8
E4
ED
EB
E8
F3
0A
05
F8
18
1B
07
04
09
1E
15
0B
1A
45
40
2B
17
FF
04
E6
03
1A
F0
06
EA
10
12
0D
01
13
EB
F8
BB
E2
14
00
EC
FA
00
08
35
31
24
F2
F5
0E
0A
20
1A
F9
FA
0E
EE
E9
DF
F0
FD
F6
10
FB
04
FC
0F
ED
17
13
EF
19
15
13
09
08
F7
0E
10
22
08
F8
FE
F2
F1
E5
EA
00
E5
F8
F9
EF
05
01
19
F4
EF
F8
F8
09
12
01
0C
09
F3
E9
F3
F3
E3
D2
02
1C
16
D6
F8
F9
11
14
F1
F9
F0
FB
F5
0F
F9
1E
2B
1A
2C
FC
03
06
01
0B
02
F5
08
08
0E
2B
05
07
0C
F4
DD
E2
0C
1F
1B
0B
1F
1B
E5
F8
F3
10
FA
0B
0D
0E
20
11
0C
0D
00
06
1D
25
27
04
E1
F6
00
E5
01
00
0F
06
08
1B
13
0E
DF
EB
FC
FB
FF
02
16
18
10
00
FD
E1
FD
F8
F4
F8
E3
DC
F2
08
11
FE
ED
E8
EB
F1
EE
01
06
0D
F8
F4
09
1C
05
0A
E9
08
0D
E2
E0
F0
F3
FD
0B
F9
FA
F2
F8
F8
FF
0A
00
FE
FC
F6
00
25
28
27
26
10
04
F3
F3
F4
E5
EC
F2
00
01
F6
07
EF
FB
27
14
1E
FB
FE
F0
16
1B
19
03
19
11
FC
06
05
E9
F1
F8
18
22
32
E8
E5
EB
F8
F4
E5
0D
08
0C
0E
0A
12
F8
01
07
0A
08
16
0A
05
03
F1
F3
FB
03
01
E3
EA
E7
F4
F4
03
0B
E2
FD
FD
E3
EB
FE
FC
F8
FF
10
08
1D
F0
FB
04
F5
FA
E7
EE
FA
07
F8
F6
F0
20
09
FA
F2
06
07
FD
FA
FF
15
FC
E7
EF
E8
E9
EF
F8
D7
F8
F3
E1
F6
FD
E9
F1
00
F9
13
17
FC
EE
EC
DE
0E
01
04
12
FF
0A
E8
EA
EF
36
06
00
E8
03
D1
E1
02
DD
13
1B
1C
FD
1D
F9
1D
18
18
EA
F6
05
CF
F7
DE
16
F3
F0
FA
EE
FE
0C
27
22
06
FD
1B
14
F5
14
F8
E3
FD
CA
FC
E4
23
0C
F2
04
22
1A
CD
06
16
D9
00
0E
DA
0F
FC
E9
EE
01
FE
EA
F0
2F
F4
FB
15
09
18
F5
07
18
FA
0A
08
FD
01
EE
1C
FC
B6
43
33
F7
CF
EA
0B
00
F0
EF
F7
08
ED
14
FD
F4
FA
F8
16
C8
EE
E5
1C
47
1A
2B
1B
FF
1A
24
37
F4
21
04
D9
FA
EE
FD
12
0B
31
1B
38
0F
F7
36
26
F9
E0
12
0C
09
02
FA
E9
21
17
EF
F8
27
39
07
EC
10
D5
FF
E0
CE
DB
36
FB
D6
E4
FF
02
E1
10
FC
2A
F9
DE
FF
E8
F0
E9
DF
00
D9
E5
D9
EC
14
FE
0B
3A
F7
EA
FC
FE
08
D3
F1
17
26
07
E5
12
ED
FB
