91
3B
AD
16
12
EB
DF
ED
FF
33
DE
A5
34
95
19
0C
AD
A7
E6
0F
E2
45
9B
9F
E4
1F
26
ED
E0
24
9E
BD
CE
26
D2
E2
3A
DF
1E
C2
EF
AA
E3
25
1F
E1
2A
AE
2D
A1
DC
E6
2A
B3
E7
1B
BE
DC
E9
28
37
E6
2B
20
10
FA
01
A5
AB
1A
18
C1
A8
D2
17
05
C6
01
05
23
FA
16
13
16
21
FB
13
0A
12
E5
EE
F5
19
17
0D
19
EC
E6
EF
F9
F6
0D
EA
F1
0C
F8
0F
01
03
1C
D3
F5
FA
FE
E4
E1
03
12
14
E1
10
17
18
DE
E4
F4
E4
2B
20
E8
33
F2
EF
A5
CB
1B
08
FB
A8
EE
02
1C
29
C8
36
20
81
02
C7
E5
0E
05
AF
2E
26
C0
9A
10
0D
FF
16
1C
3F
A1
EF
A4
27
3E
87
23
93
08
15
B4
05
1E
1B
30
3C
1E
F4
FA
9C
23
2C
94
AE
20
EF
DE
FD
F2
05
F5
EE
53
54
10
FA
35
52
15
09
03
15
01
D5
00
F1
F6
19
C9
00
EB
0F
09
0D
EC
E0
1E
17
C8
FE
01
15
DF
E9
20
E5
0B
E3
EB
17
0D
1C
EC
DD
02
15
0C
D8
F5
F6
18
D9
07
1A
E7
E4
14
0E
E7
0C
20
EC
D0
