30
2F
6D
12
7F
14
34
0F
4C
2A
24
FA
DE
1C
FF
09
D2
F0
E4
EF
28
10
45
F8
22
02
15
15
BF
CB
0D
FD
06
F8
FD
03
FC
D1
E8
EB
F2
F1
04
07
F7
FE
10
02
FA
1E
34
11
0A
0E
FA
F6
EE
EE
EB
F2
E8
FE
F5
F4
E4
12
03
11
0A
F8
FD
03
1A
18
F5
12
E0
D7
F4
26
F2
11
0F
D4
D9
D0
45
DE
CE
12
C5
D3
1A
09
BD
E8
CC
05
32
31
E3
01
0C
0A
0B
1D
0F
FF
C9
E8
F8
E9
FA
37
0B
FF
0C
0B
09
05
12
ED
EE
FC
F8
F5
F1
E4
F1
E4
E6
F2
EA
05
1C
25
12
14
05
FB
0A
E8
14
04
1C
17
E9
01
CA
D9
26
F2
11
17
19
22
26
27
2A
20
F1
F1
E3
05
1A
FF
14
18
F5
EA
00
0F
1B
BA
F6
21
45
03
D5
50
43
03
09
CD
E5
EA
EF
EE
F4
FC
E9
EF
FB
08
F7
03
FF
F2
E8
FA
68
A2
81
3F
38
D0
74
03
D9
A7
55
D5
10
0B
FF
0B
05
0B
0B
10
11
0E
13
08
0F
14
FD
EA
E7
09
FC
13
1C
EF
E1
19
08
08
21
42
F6
9A
F6
0A
D8
17
58
32
D3
17
B2
3D
28
DD
F9
FC
2B
0F
34
FA
F0
06
7F
D1
DF
22
03
C3
EB
E9
08
0E
03
0C
10
F8
ED
F6
10
1F
16
03
EF
E9
F0
F4
F6
FC
FD
ED
06
0A
0B
F5
FF
11
13
0E
F5
F4
F7
02
EB
01
ED
F6
0B
0E
18
0E
ED
03
FC
01
F4
01
14
0A
18
15
0E
07
02
10
0B
17
0E
FF
FF
1B
07
04
F7
12
0A
06
18
1F
11
FF
1D
01
05
ED
09
0E
1D
FF
21
15
04
0B
1A
0B
1C
15
13
08
05
FA
05
18
00
0F
FC
11
10
09
15
2E
06
F6
08
ED
F0
F3
0C
FE
06
C3
26
FD
0A
27
26
FE
06
1A
1A
D7
E1
F2
1D
22
FB
E0
F9
EB
24
2A
05
EE
DA
FC
16
F5
E5
02
F3
FD
0D
EC
D2
F3
FB
13
0B
F9
F1
1D
1C
F2
F6
ED
0B
03
FD
F1
FC
E6
FA
F9
0F
FE
18
FA
F6
15
07
04
05
ED
F8
F7
F3
FD
F7
E1
ED
F5
07
02
23
01
F2
0E
00
FE
EA
F9
03
08
17
16
17
08
F2
02
03
08
0F
05
0D
F8
F5
00
FD
01
05
F9
06
0B
04
15
14
01
0A
0E
F2
02
07
F7
10
14
FA
FB
FE
0A
FE
04
F8
F5
FE
06
05
F6
07
09
0A
10
1B
0A
F6
F0
EE
26
22
FF
04
F0
E7
07
EE
E2
EF
EC
0B
F1
FA
09
0E
0D
F1
07
F2
D5
24
11
06
F1
F9
F7
1B
24
17
14
F7
F8
EC
00
CB
02
12
09
22
F7
E1
EB
E4
ED
F0
DD
E4
0E
F0
00
F9
EB
E2
FB
04
EB
EF
EC
F4
EA
FA
FA
03
09
F6
EF
F1
D8
F6
EC
F0
ED
FC
FF
FE
FF
EA
10
FC
F9
F9
00
FC
E7
F7
05
F1
ED
F1
0A
FA
EE
F4
19
F7
14
F2
EE
EE
ED
FC
DD
CE
FF
F3
00
FB
0E
05
10
06
D9
EA
FE
CD
D0
ED
F7
19
11
F7
F9
EA
FE
E4
07
19
0B
00
E6
F5
18
00
02
F8
F0
D9
1A
0E
04
EB
F2
11
04
DE
F0
F3
0A
EF
DB
20
0A
23
24
DE
07
42
FA
FD
18
17
F2
30
17
EC
02
20
1C
E0
17
D0
24
18
B1
54
41
C3
FC
03
22
57
02
01
05
F4
D3
2F
F5
FD
2D
0F
F1
F0
F4
ED
D4
EA
01
11
F0
FC
0B
07
E8
DB
DC
0E
12
0C
FE
E0
FC
F5
FA
0B
0B
18
1B
F2
12
12
FE
DF
ED
0A
02
0B
07
13
0C
12
F3
17
E3
EA
EF
17
06
02
13
08
0F
14
04
FE
1C
14
11
FB
03
20
0D
F0
E8
FD
0F
FE
F7
0C
11
10
0A
04
17
15
F6
06
0F
06
01
12
00
21
16
FD
0E
17
FC
14
15
F3
0F
0A
11
21
1A
0A
14
CF
DF
12
D3
F6
FF
E8
E6
1C
21
FB
05
07
FB
13
32
12
DC
A7
B4
EB
02
11
28
04
FC
F7
FB
24
03
07
F4
CA
A7
DE
08
10
06
CD
C1
AC
1E
F5
E3
17
FE
FD
F0
E4
F9
02
FE
1B
F8
F3
DE
FD
F9
09
04
F2
F8
E5
EE
E5
DE
EC
F7
22
23
0C
EA
E8
EB
10
09
07
05
0C
18
0C
FB
D6
FF
F9
FC
F1
E4
D3
FA
00
FE
FC
0F
02
EF
0C
0C
FF
0E
0E
01
03
09
FB
0E
11
FE
05
0F
10
10
05
ED
0A
06
03
F9
FF
06
F2
F4
09
0C
08
0E
0E
09
FD
01
19
03
0F
14
0D
F9
FC
EA
E8
E5
07
01
06
00
13
01
F1
FF
E0
E2
14
29
06
0D
33
02
0D
0D
07
FA
FA
ED
F8
FE
FA
0F
21
14
21
09
0E
04
0B
04
ED
EB
D1
E5
1A
FC
FD
EF
FF
F8
EA
E7
EC
EC
14
F9
ED
E3
EA
FC
F9
F9
FA
FF
0D
0F
17
20
11
05
02
0B
EA
00
FD
FA
05
12
D9
EE
F9
14
2A
18
E9
E2
EB
02
E9
FD
EC
09
08
05
04
17
F9
0D
14
1A
09
FC
10
E6
EA
FC
F6
FD
14
09
F6
EF
E1
EA
04
F9
FC
17
1D
12
05
06
0B
F2
E7
E9
00
F7
ED
EA
F9
F2
FC
0F
FF
0B
F8
F2
F8
FB
F2
FA
F8
0F
DB
D5
E5
F9
FB
FA
05
10
15
18
17
F5
E1
F1
E1
09
07
F9
E9
F4
FC
EC
00
FA
05
18
1B
FD
FF
FD
03
12
FB
EB
FD
E6
F3
08
FE
F8
0E
0C
09
04
01
01
09
12
F6
F8
EB
F3
E8
EB
0C
F3
04
E0
E9
F3
1A
FF
0D
E6
FE
05
EF
F6
EF
EB
FA
EA
04
F3
09
FE
09
FB
DD
DB
E8
F1
FA
12
D5
D6
E3
03
08
FC
FE
F3
0D
0C
FD
06
02
04
0B
11
FF
FB
04
13
FD
F5
06
FA
08
03
0B
DA
E7
F4
08
1D
19
F9
0B
0F
07
F0
F5
04
F8
0A
F8
F2
E4
FC
07
FE
03
08
ED
01
16
08
F0
05
10
FE
03
FE
FB
F7
FE
02
09
0C
F8
0E
09
19
12
FA
F1
E7
FC
1C
00
F1
D3
E2
FA
FE
04
FC
0F
FE
0B
EF
F8
F1
2A
15
21
10
E9
E6
08
13
06
02
14
FF
06
0D
F5
00
FC
1E
1C
FE
FB
02
EA
F6
F8
F4
F7
0F
00
01
0C
0B
F2
EE
E6
F9
18
0E
12
01
13
FD
FF
EE
ED
00
07
00
EF
03
FC
FC
09
0F
02
0C
08
02
06
FB
E5
EB
F6
FA
03
00
01
F4
EF
FA
DD
F3
ED
18
06
F8
E7
E1
F9
FA
F3
01
DD
F6
F7
F0
04
00
E3
E6
FB
E7
F2
FF
FC
FA
F6
EF
FC
00
EA
DD
E3
F4
EC
EC
F1
0C
EB
F3
E5
E3
F9
0A
E1
E9
EE
E4
FF
F6
11
03
ED
EF
07
12
14
F6
E9
F9
ED
F8
1D
05
F9
F3
03
16
01
1C
1F
0A
16
04
F8
0C
0A
0F
F2
FF
FE
1C
2D
00
00
FB
01
15
04
EB
E6
06
16
23
0A
E5
E9
F1
41
8A
68
C0
31
07
DB
EC
14
0F
04
ED
AF
36
1C
E0
6C
E4
00
43
E0
C3
20
29
41
DC
EC
EC
E7
3E
02
F9
3A
B5
2B
23
D9
1B
0D
2C
96
EB
14
E1
0C
02
04
E5
FC
0B
05
E1
F7
08
FA
0B
06
07
E5
05
F9
0B
14
0D
04
03
F5
F3
0E
E3
EC
0F
00
F3
F1
FE
F8
19
CF
E3
F2
FF
0A
0D
F3
E4
03
F7
01
02
B2
DB
F0
06
22
24
10
10
08
FC
FA
06
06
07
0A
06
FC
FD
07
1A
15
E3
E1
FA
0C
07
0C
E4
00
FB
02
02
F1
FC
F3
F4
FE
F8
F7
F3
F0
06
08
EE
0B
07
01
06
FF
F0
F6
06
F8
E1
FE
04
F1
1E
11
12
1F
06
EC
0A
04
F9
03
05
F7
0E
06
12
0C
09
F4
0E
06
FB
FE
F8
FD
09
FB
F7
1B
1A
1D
FB
14
00
07
07
12
0F
0D
02
0E
F9
FF
FD
07
04
01
18
1B
FD
F5
0F
F8
11
0D
00
FE
08
00
DC
F1
2F
1F
22
F0
0F
00
F5
EB
EF
E7
F5
15
F8
EA
E9
FE
1B
F3
16
0B
08
1B
06
0D
E9
FB
E3
FC
07
FA
FF
16
F4
36
C3
10
D8
05
12
06
DA
0E
29
08
D9
F7
EF
1F
D8
D5
7F
EE
10
22
FA
09
E7
F5
F1
26
2A
2E
B5
CF
35
19
FC
B2
5A
35
EE
CA
DB
36
0E
DF
0E
0A
F8
B7
3B
02
1C
0C
1B
FE
F2
E5
01
08
F3
04
ED
EC
E5
C3
01
01
06
29
14
1E
0E
DC
DF
E7
DE
FE
06
1B
20
14
18
F9
E2
FA
02
0A
FD
FC
01
02
01
E2
03
F7
F3
09
27
E5
40
B9
D4
DB
0D
0B
E1
F6
F8
06
0B
F9
F4
F2
DB
EF
4D
32
28
20
EE
0D
EC
EF
F4
0A
00
F6
02
E5
FC
20
F8
25
FC
11
EB
E7
3E
0A
12
C7
15
1D
E6
D6
EC
79
C9
26
3C
19
2E
73
FF
E3
87
A2
5F
F6
D1
17
1E
35
38
F6
FD
CB
AE
D5
01
20
7F
58
00
01
F8
E3
FC
E6
F7
02
E7
23
01
9F
FC
21
06
06
06
D8
F9
F9
F3
F9
ED
F9
0D
FD
E3
CD
F7
05
B2
3B
EB
02
E2
FE
F3
0A
E5
04
F0
D2
08
0B
FE
14
FC
E7
14
D5
DA
03
15
CE
F3
01
06
1B
00
FB
EC
F8
D9
E2
E3
00
E4
D5
F6
1A
12
00
07
F3
00
FA
EC
FE
0D
E0
E9
EF
DA
DC
FC
FD
01
F9
0F
14
FC
F6
F0
B1
E7
CD
F3
FA
BE
E4
1C
1C
FC
DC
E0
F7
FF
18
06
F1
06
0F
07
FF
FE
F1
F6
06
07
18
10
1E
27
E9
FF
33
05
18
D5
0D
12
D9
EC
04
49
F9
E4
11
F0
EA
E7
12
31
F9
F4
31
18
01
10
43
17
F8
EB
F8
F7
0E
ED
E7
11
0A
05
CC
09
1C
28
18
22
23
F6
EE
C6
FA
E8
F7
EE
19
02
FE
F7
21
F2
0E
01
E0
F7
08
08
01
FF
FD
18
1E
13
11
CB
FE
EE
E0
09
F6
1E
0A
1C
09
EA
09
8B
F3
0B
EA
05
25
DD
0A
05
D7
18
CB
D9
F7
EB
F4
1A
F6
F2
02
15
10
12
F6
EE
01
11
EE
03
14
F7
EB
1D
AB
E9
19
FA
18
F0
D5
2C
0A
E5
F4
EC
E0
0A
DE
EB
F7
1D
1B
14
FC
F6
2B
3B
E5
26
1C
E9
D9
C2
00
FF
20
BD
20
17
C8
FE
27
1F
05
EB
F9
10
12
ED
09
FD
AB
1C
E1
F1
22
FC
F2
EE
24
DA
FE
08
FD
BC
F3
FF
FF
31
D5
EE
20
0B
DD
C9
20
03
D7
19
F0
ED
DA
F3
DD
E9
F2
19
AE
02
42
F6
05
AE
2B
FD
18
D7
F6
31
E0
D7
1B
0F
01
15
0C
F3
F8
13
25
0E
E5
D2
11
18
EF
22
F6
F8
0A
07
DB
F5
F2
EF
FC
D3
F9
14
FA
F9
06
E9
C8
3F
D6
F8
1A
D5
D8
1E
03
EB
3E
1D
F7
0E
E3
F3
27
14
24
D1
E3
E3
32
EB
FB
0D
28
F4
1C
BB
EE
2F
FC
F7
13
01
1D
F3
C1
EF
0A
C5
D0
1C
08
F5
D6
EE
01
0F
0F
FC
F3
ED
18
48
18
EE
FE
10
F2
CE
0A
FB
FF
07
ED
0B
E9
06
37
E3
FC
FF
03
D7
F7
04
DE
EE
E1
F6
DE
06
08
2A
E5
13
DC
1F
05
EA
FC
05
EA
0F
1B
20
1D
F1
EE
E0
E1
DB
12
03
E5
19
F8
08
DF
EA
52
0F
16
F6
E5
0B
BF
D9
17
12
FF
04
FE
C0
F2
FD
06
F2
04
ED
0E
35
F0
03
26
03
F4
24
08
FD
2A
ED
20
DB
FA
03
D9
BB
01
E7
E1
1A
06
0C
F8
04
D7
CC
B7
05
00
E5
32
ED
30
08
13
1B
08
F7
1B
08
DF
E4
E7
18
FE
E1
19
1E
DA
14
20
D1
F3
04
0F
25
25
F0
05
F7
C0
F8
AB
0C
ED
EF
21
0E
E7
1A
07
0C
DE
DF
CD
0F
16
0B
CC
EA
DC
D7
E1
FD
D9
14
C1
07
F2
D3
10
E8
04
F4
EF
E3
E1
F4
E6
1C
E3
E7
36
FE
BA
13
EB
0A
08
08
1D
15
C6
F1
EC
D8
E1
D0
F5
07
EF
12
D5
F9
C3
2F
0E
D4
FD
F3
1F
0C
1D
FF
22
EA
F2
09
EB
F4
FB
E9
EC
F7
DF
10
E8
F4
F6
07
09
1B
13
F2
0F
EC
03
C0
E9
0A
12
F4
E7
19
D8
1E
38
0D
09
EC
E0
24
22
09
F4
FF
DE
2F
00
F5
C6
DD
F4
0C
DB
01
29
F0
04
F6
1A
D4
26
E2
EC
26
0C
FF
06
05
31
03
E8
FB
15
15
09
03
FE
E2
45
12
94
03
EE
F7
0B
F3
C5
2A
13
0B
21
0E
EB
C4
E0
15
E8
0C
35
25
1F
0C
10
20
E7
1D
07
DB
13
16
FE
18
2B
1C
F2
FA
05
CC
F4
1C
FB
F9
D4
37
0C
F6
ED
FD
00
2D
FB
24
18
D6
F2
E6
1B
0B
0E
13
0A
D8
04
44
0C
07
02
F3
06
15
FC
20
FB
DA
FC
10
F6
0E
CD
26
FA
D9
1A
2C
05
EB
29
FE
E5
05
19
0D
09
C3
01
F1
FB
E6
02
15
F7
15
10
06
00
3B
F5
EE
E1
ED
0C
14
01
FD
00
E8
27
08
DB
16
31
F9
13
E2
08
FE
CB
DB
2C
3B
0F
19
F4
F1
FB
EE
FF
F5
0D
C7
F4
0C
F1
1E
19
1F
00
04
EF
0B
1C
28
F4
EF
15
09
03
F9
10
08
12
E3
F2
E2
DE
01
10
11
0F
16
17
15
26
F4
EA
1A
F9
11
F6
EA
06
04
E6
EA
14
0F
03
50
18
0B
09
FB
1B
F3
0B
25
1C
04
00
ED
FB
08
48
F9
29
D5
F9
FE
2F
26
0E
FA
0E
18
EF
02
0F
24
09
09
19
09
E9
0A
E8
FC
0C
E3
FE
3B
05
15
07
0B
0D
FA
E5
EB
0E
FD
0B
F8
28
F6
32
E1
04
14
FB
F8
58
F4
E3
0A
EE
C8
33
2F
2E
20
EB
E9
1C
E9
D6
46
FA
32
1E
ED
01
FE
03
0C
E2
11
10
16
EE
05
EE
E9
DF
43
F3
29
27
0A
37
ED
E9
D7
44
0B
F6
17
0D
AB
F0
11
18
13
EA
17
C4
1E
0C
25
14
D5
15
04
24
2D
0C
F3
D7
DC
29
F4
F6
15
0C
E5
FB
17
F7
2A
50
1C
BF
0D
EF
EA
19
0C
0C
EF
E0
25
6B
10
FF
05
F6
19
F2
EB
18
04
E9
E8
01
0A
D7
FE
09
09
DA
D2
D7
14
18
E7
FD
0F
26
D6
03
F0
B2
CB
AD
FF
F5
DE
14
E4
F4
FA
D9
F9
01
12
F2
F6
E4
EE
07
0E
ED
EE
04
FD
ED
F6
07
03
09
FA
23
F8
06
E5
FF
E7
04
EA
DD
15
F5
F0
FB
0A
22
0E
EE
D5
D8
C5
B6
0F
DE
27
F3
01
12
24
DE
D5
17
E9
EF
81
D7
C7
19
F9
17
C3
0B
CD
F1
01
F3
F8
F2
C6
1C
21
0B
1F
04
21
14
E8
DD
11
10
04
0D
C9
BE
28
05
F0
22
FB
FB
0D
ED
E7
0B
0A
FA
CD
F3
08
31
00
2C
15
09
03
EE
F1
08
0D
F1
EB
E6
E9
E2
0D
0E
E4
04
F1
21
0C
CD
CF
E5
0A
ED
C4
11
15
E1
17
2E
EF
F2
05
02
15
0C
F7
33
03
FB
DD
11
E6
E5
E5
17
18
CB
19
1F
E7
01
04
0E
EA
11
0F
04
0C
DB
1F
FD
FA
FE
EA
FC
2C
FD
DB
1A
2C
F7
13
0D
1B
13
11
27
E1
2A
F4
EF
0D
11
10
EC
E4
08
00
DD
1C
D9
DC
25
02
DE
1F
DA
12
3A
2D
0E
E9
0D
1A
12
0A
FF
F7
F1
0D
C9
24
EA
16
F2
04
2C
F5
1C
13
FC
03
23
0F
E8
F6
08
0C
03
0E
EC
E5
C4
CE
0A
E2
D6
2A
0B
FD
E0
06
F9
FB
F6
0F
3B
25
EC
08
04
2A
CE
06
5B
FA
EA
35
01
0D
00
E2
FA
F3
E3
17
34
17
15
B6
19
24
F1
25
05
03
46
ED
EF
F0
42
E7
CD
EC
3B
D5
C6
CE
E7
35
ED
E8
0A
25
C9
15
3A
E6
C5
3C
08
EE
16
FD
F9
BE
1E
FD
1F
07
00
24
26
E0
9D
0B
E9
E8
1C
FC
D4
E5
0E
FF
10
0C
E4
03
FD
11
E7
08
4E
E1
06
0C
FA
04
F7
22
1B
FC
C7
18
2A
2E
FA
CB
22
E7
ED
EF
0B
0B
EF
F5
06
E5
F0
0F
13
08
E5
A5
F9
11
FE
DE
0F
18
05
F7
FF
1C
FA
F4
F8
10
D5
F7
04
F1
F5
C0
D7
F3
26
FB
12
EC
F2
FC
18
22
0D
D6
07
02
EF
DD
04
13
2E
FC
E9
F3
FA
09
CB
F0
16
FA
10
27
32
0E
CF
10
1C
F9
FD
1D
FB
27
FD
E0
18
0A
E5
E4
07
FB
DF
0E
1A
16
07
F1
F3
EB
08
EC
EF
0E
08
27
E3
2D
F7
D7
28
1F
CE
0B
12
EA
19
E5
D9
34
07
CE
EC
F7
EF
02
16
D9
2A
FF
07
EE
1F
10
43
F0
EC
CA
1F
C9
BC
28
B2
24
EA
0E
FD
0F
CD
18
CD
FC
04
07
D0
16
FD
05
E9
F8
1B
EE
F0
C0
08
03
F3
13
0A
FB
D7
0B
D5
39
01
F2
FE
FE
21
D9
23
E4
E6
F0
D6
2E
10
E2
34
00
F4
06
0F
28
DA
00
F4
04
1A
07
D8
18
F2
EB
22
25
E4
09
CB
05
00
E6
EE
FF
07
16
E4
F5
07
FE
0A
E2
1A
FE
24
10
03
E9
E2
D1
F3
0A
E1
DD
F8
03
E1
FF
C2
D8
12
01
FF
E3
06
DF
0A
24
F8
0E
0C
FD
16
F5
D6
02
EF
E0
22
16
EE
E9
FF
0F
05
17
EA
16
0A
F8
19
0C
0F
1A
0E
FB
FC
F5
C2
18
0D
0E
20
1B
0A
11
E8
0F
FB
05
E2
05
CD
04
F8
05
E4
EE
16
E1
F4
FA
DF
06
FA
0C
08
0B
0A
17
26
1C
F8
01
0E
F4
F9
ED
E7
ED
F4
E3
EC
06
1C
37
0E
03
FD
1A
23
05
C9
FE
FA
05
FB
E6
03
05
13
CD
F8
FC
07
EC
F0
0A
11
0D
04
03
F3
FF
FF
C4
EF
0D
04
D3
E6
E6
07
00
05
F5
FA
FD
0D
FB
15
13
FD
01
10
FC
1A
06
E3
F9
CD
F6
F8
14
07
04
27
1B
24
04
F6
0D
54
00
CF
0C
FB
F7
1B
E3
E8
14
20
19
FE
FC
EA
FB
16
E7
04
04
FD
EF
F1
06
E8
E2
D3
13
F9
11
1B
11
F2
16
F5
22
F1
D5
06
04
FA
D7
DA
EA
46
0A
F2
20
03
E0
1A
12
04
C3
26
03
C2
C8
F5
04
13
E0
F8
BE
04
37
14
02
F5
CE
EC
F5
18
15
16
47
FA
BA
17
1B
1D
EA
DB
0C
21
F8
DD
F1
1F
F0
DD
0C
1A
18
F4
DF
2C
1C
0C
0E
F3
22
F7
F7
FC
15
FB
01
0C
08
14
FE
14
F8
0F
F0
FD
30
F0
EF
07
03
FC
11
16
EE
0B
FF
03
44
0C
F0
15
04
D4
EE
2E
34
01
FE
E9
F0
08
24
24
06
C7
E5
07
F1
F8
06
04
C4
FD
0B
F3
FC
0E
E0
F7
E2
2F
F9
DB
02
F5
F9
14
2B
0E
0E
02
F4
19
0F
1A
ED
F2
E4
34
0C
20
13
E9
FC
F6
ED
F6
16
1E
FD
F8
F0
20
EF
FA
02
0E
F0
13
18
FC
F2
F9
EC
05
2F
1A
03
0F
18
04
FC
12
0C
DA
0D
FC
21
08
F8
1B
E1
0C
1B
14
32
17
29
2D
01
D6
F4
F9
FD
15
00
DE
00
01
08
15
06
0F
F4
05
05
09
F5
EA
F5
13
FA
F4
0F
0E
12
FE
16
0C
01
0E
02
FA
EA
EE
05
0C
08
0B
F4
12
0F
FA
0C
0D
FF
13
FA
E9
F2
0C
FF
15
FF
EA
03
36
FF
39
F9
F0
1B
E2
25
10
37
FD
0E
E6
F5
C7
E6
23
E7
03
02
F6
29
01
F6
F7
02
0C
FC
1C
EC
C9
F4
2C
DF
ED
D5
EA
18
DE
E0
0C
F4
C9
F2
EA
F1
14
00
E5
17
18
3C
F8
CE
F4
FE
36
D2
DE
03
0A
14
2E
DD
0F
DA
F6
22
FA
07
1C
1C
0C
02
FB
2C
1F
29
DF
E3
FC
FC
14
2D
E3
C1
EC
0D
0E
13
26
00
22
F6
FB
0D
28
06
11
1F
FA
13
03
EC
F2
17
19
00
FC
F6
F6
F2
FF
EA
F5
02
14
0D
1D
3B
FB
02
FF
A5
E1
CB
01
DD
DC
F4
F0
F5
0C
1F
20
08
FC
04
DE
EC
F7
04
05
25
30
28
2E
E0
CC
BA
14
FA
EF
17
1B
33
07
04
FF
2F
37
3B
F2
FA
FD
08
02
F5
03
10
F5
06
02
18
EC
01
F3
06
0B
05
25
1C
14
01
FA
EF
B9
C5
D9
EB
F4
F8
EF
EF
28
E6
FE
E1
06
1D
2C
D7
ED
FF
E9
FB
08
FE
F9
01
0A
DA
EF
2F
FE
FF
FC
ED
11
02
05
F9
BC
F3
27
11
18
2B
E8
0D
0E
E7
04
13
14
F2
E9
FD
0C
DD
27
FC
F0
C5
02
19
D1
E6
05
15
1A
0A
E7
1C
F9
24
15
FD
01
DD
E7
01
E3
0C
D3
01
FE
FA
FD
0A
F0
0F
33
F8
F8
ED
F9
08
21
E1
E3
01
20
0C
D5
FE
C2
F5
10
F9
ED
1B
F5
C6
09
EA
01
35
FB
F8
FC
00
D0
28
F7
EF
D1
F8
EC
D4
FA
20
CA
06
0F
E7
01
F8
2F
FD
D0
C6
E6
C5
FB
F1
E4
07
ED
E4
FA
F7
DA
FC
E3
FD
E0
0C
01
0D
10
E7
C3
F4
05
E9
04
EB
48
F9
E9
0F
01
D4
BE
15
36
4C
0B
B3
07
02
03
B6
FC
F0
07
EE
08
31
DC
E2
15
EB
F0
DF
0B
11
F6
FC
DD
CA
08
0E
0F
01
E4
F6
1F
0B
DF
FA
E1
04
FB
E8
0B
02
EA
E9
EE
01
08
1F
03
21
03
FF
0A
1C
FF
19
EE
D4
EC
EF
07
10
F5
D0
DD
06
F3
06
04
EE
19
00
E7
E9
FA
E5
09
0E
EA
C6
F0
EB
E0
F1
00
EE
EE
E4
ED
F7
FC
17
0C
ED
F5
07
FA
FA
F3
0A
1B
09
E8
15
F1
F3
F2
E2
E1
01
0A
EB
08
08
FA
ED
08
EE
08
F4
C8
FE
10
04
EE
09
02
F9
F4
F4
CA
FF
26
10
FE
10
F8
14
F8
23
04
FC
11
11
3C
2F
FD
0A
11
FC
00
E4
F0
11
F9
22
0F
EE
01
17
81
05
BF
EA
E4
F7
0F
01
08
0E
E1
23
FC
F3
2A
05
FF
D5
DF
04
EC
04
04
12
D9
0C
EE
09
F8
0B
0E
F0
E8
DA
20
03
01
09
FE
DD
EC
00
EB
F2
E0
13
E4
0A
04
0D
D7
07
0D
09
FF
F8
1C
02
1C
FA
00
1F
14
DC
14
25
D2
05
03
D3
FB
09
E6
FC
36
DD
FE
9B
09
F8
C6
16
08
E3
04
0F
D1
EB
2A
F5
DA
ED
37
1C
12
DA
EF
14
DB
F8
EC
24
F8
14
2A
12
19
29
21
FF
D6
E6
FC
F9
28
F9
1B
F8
06
2F
B8
CA
08
04
05
08
4C
F3
E6
E2
E4
1E
11
F2
0F
15
06
0D
02
0F
17
BC
1C
11
EF
04
17
19
E7
F8
E7
28
F8
12
FD
FA
16
26
F4
1F
DA
F0
47
E9
ED
44
03
CB
EB
02
EE
42
DC
CE
04
02
18
FC
23
EF
CF
03
0B
FD
F5
DA
38
03
EA
06
1F
D7
2F
05
CB
F3
08
E5
20
1C
F2
AB
F2
4B
D5
0D
D9
26
E2
D4
CB
F4
1A
18
15
E9
2B
D0
D4
2F
E8
F8
C3
22
24
1C
E3
FD
05
13
0B
F1
0E
02
EA
21
17
37
DE
C7
26
EE
EC
FE
0B
14
3E
1F
C8
DD
10
12
10
09
D6
4C
04
C6
19
FE
F1
26
1D
02
1C
E6
CF
26
08
0F
DC
F1
1D
DC
F1
37
00
0B
F2
FF
0F
28
43
07
E3
DC
01
21
04
18
15
17
1C
CC
1F
07
D3
EC
F0
B5
F2
10
31
16
10
F8
A9
06
05
D5
0A
E0
20
22
E6
27
25
FC
DD
07
23
30
25
C8
0F
0F
F4
E1
FB
FD
F3
FE
D4
33
03
FA
2F
F3
F3
00
17
12
14
24
E3
E4
09
28
10
FF
EA
F0
01
0C
10
0F
F0
C5
E7
F4
19
1C
FF
16
01
08
EA
12
EB
F7
F8
CF
00
EE
1C
2E
11
0D
05
DB
09
FC
19
EE
22
FF
F9
FE
F4
1B
3B
08
05
20
FE
F9
E3
03
C8
08
FE
2A
E9
1D
0F
07
EA
04
1E
EB
FB
F3
ED
FD
E8
14
10
10
FB
E2
FB
EB
04
E5
05
F1
05
1C
11
EF
ED
E6
D4
05
E4
1D
F5
FE
0D
11
CC
FA
01
F1
72
4B
C9
10
F0
18
D7
AB
13
DE
6C
9F
F7
E5
07
30
15
FB
C0
2B
46
BE
F5
B8
78
01
2C
15
3B
7F
F4
3D
21
1B
F2
E9
F7
08
25
F8
E3
F4
FF
2A
E0
E7
08
11
FA
19
1F
11
00
F5
11
E4
11
E9
E7
ED
D6
FE
C7
FF
13
10
2B
13
F6
02
E4
D2
03
FE
E7
F0
A2
24
DB
15
F1
09
C0
14
0D
EF
F0
11
19
DB
07
E1
D5
CF
EF
C0
01
F6
D6
1F
E1
00
31
00
F7
E8
0D
06
ED
DA
EA
0C
02
1F
1B
04
1A
00
C6
F0
24
CD
CA
DE
0E
F4
0B
17
04
E6
20
F4
F9
FD
B6
F5
F0
FF
02
0F
D8
17
01
28
25
F8
24
02
E5
0A
E4
FE
E3
F2
F5
1E
F6
01
0F
F7
F9
D7
F0
FA
FA
03
19
C4
FA
FB
02
F6
15
FC
F9
39
ED
E3
05
11
18
0E
16
10
0E
ED
EE
F7
04
BE
E6
ED
ED
3F
09
FD
12
14
EB
08
0E
E4
1E
1B
08
02
FE
E4
EA
F9
FC
2C
F3
FA
CF
A8
BC
4C
B1
EA
FC
F8
E6
24
F5
FD
11
3B
00
E2
ED
39
03
F3
0A
D9
E0
EF
00
E8
FA
2B
EF
06
37
EF
18
0D
10
F2
0A
1B
16
1B
05
DE
EE
D3
E7
E7
F0
00
E7
01
1B
21
E1
F4
CB
35
00
0E
F5
FE
0A
DC
17
FA
0E
07
FD
09
F0
F4
40
11
01
E4
02
08
1C
09
28
0F
16
E2
38
EE
D9
0A
FC
16
18
FD
25
19
03
04
39
24
EC
EA
02
03
F2
02
FD
FC
F0
18
FF
F6
D0
02
E8
12
03
26
14
00
F3
04
02
14
28
FF
03
07
11
60
C5
03
30
CE
1E
E9
1F
D6
F3
03
EF
23
41
F2
10
9D
36
01
06
05
1B
1C
00
F2
FD
F0
DA
1B
F7
17
E1
F7
F3
F3
01
1B
D4
0B
0D
03
F6
08
D6
C8
F2
FD
10
FC
F3
19
06
07
27
EA
18
B2
FB
C0
0F
28
CD
FB
FE
0F
CB
C1
27
34
FE
E3
EE
FE
09
12
04
0D
04
10
22
FA
06
05
03
2C
C3
04
F1
07
EA
00
C9
0C
27
01
06
57
1B
01
FB
00
14
21
35
BA
00
DD
F3
1B
1B
12
ED
C4
E4
21
E8
04
F0
E3
0F
F2
E6
F9
00
01
D4
EE
28
04
0A
18
E7
D9
BB
F4
FE
2B
00
11
F9
F2
2E
02
E4
F5
FD
F8
1D
CA
0D
ED
10
EA
13
FF
0E
D1
FC
02
BD
14
15
0A
46
CF
D0
FF
E1
0C
2D
F9
06
F7
E1
DD
13
C6
06
1D
50
FF
02
03
17
46
FD
E6
DE
36
F2
F7
04
F2
06
D9
E0
28
E7
F8
F9
F1
EC
00
C0
09
F3
D2
0B
F1
FF
FC
F8
B7
F6
CB
F8
0E
28
13
25
E7
21
FE
1D
3C
00
13
14
CD
CB
E9
11
F7
CE
13
1D
D6
10
BF
E3
20
FC
CE
BC
8A
CE
25
F1
14
0A
09
F7
0F
1D
04
02
CE
09
0C
3C
1D
17
3B
13
FB
DD
E2
E8
CB
F1
F9
FD
EB
E5
01
1A
0F
D7
EE
D1
E9
10
ED
04
02
FE
17
ED
0F
10
FE
FB
F9
17
F5
E5
18
1C
19
09
01
01
E1
0B
1C
00
19
17
1C
F9
D5
C0
D5
D2
25
01
D6
11
07
01
F4
08
F7
FF
09
1C
EA
03
04
02
EA
F4
0E
FF
21
2C
FC
D8
19
0E
26
FD
F6
ED
22
0E
3E
0F
F1
00
18
D5
F5
FF
EE
DF
1D
01
0B
1C
1A
2A
31
00
06
31
34
03
FF
26
1C
B6
05
05
E6
17
08
E1
1E
0F
16
06
E1
1C
F5
D6
24
14
E7
24
14
E6
3F
0E
44
09
08
48
17
29
06
E7
F4
E4
F2
06
08
E3
E6
1A
2A
20
C5
07
D4
E8
EF
DC
F1
1B
20
39
05
20
1A
37
FE
3A
37
24
D3
C9
D3
0F
DD
E2
4E
16
06
09
F0
0C
12
15
F5
C4
E7
E4
C7
1B
E0
33
06
E7
A9
1F
FC
2F
0D
E6
F3
F4
11
DD
DD
07
AF
42
08
DE
24
FE
DB
24
FE
12
14
E7
27
D4
E0
09
D3
18
14
F3
CE
0E
F3
E0
1C
E6
CC
0E
E3
FB
EE
FE
15
D4
23
24
D6
14
ED
A2
BE
F9
AE
45
14
D2
1F
08
E2
08
16
E4
CF
F2
34
02
14
C3
3A
E1
02
1C
1A
D4
06
0D
01
C0
0A
08
42
02
1A
DB
F8
1F
20
19
D3
DE
04
0A
3B
23
1B
2A
03
0A
0E
17
E1
15
27
11
B3
0F
29
12
F3
3A
F1
F1
C8
19
E9
D2
21
F0
D1
E7
F4
FD
D9
D3
FD
EB
F0
0F
44
14
EE
EB
FC
B4
0C
01
D5
A0
EF
17
F5
1E
FC
F6
08
0D
1D
19
F8
FD
FC
E6
F7
0C
15
CC
F7
3C
15
04
2F
15
4F
15
F5
23
EF
F8
E4
1E
F4
19
14
D2
24
06
08
F9
DC
F5
23
F3
F6
32
78
1A
E2
CC
09
F4
39
1D
1A
F1
03
1E
F7
F3
18
ED
AE
05
31
F7
BC
0B
D3
0A
11
E4
17
27
D3
F9
20
06
FA
0C
F7
17
EF
E0
C6
B5
E6
01
FC
FC
0D
31
F0
F1
C9
17
18
C5
17
29
F9
10
EF
EA
CA
04
CD
15
1C
E9
17
21
E2
09
0B
CB
FD
0D
1A
BA
F7
FE
FD
F8
F3
19
DD
01
34
13
CB
EC
FD
1E
0C
0E
E4
F5
1C
F6
FF
DF
E3
C2
DA
F1
E5
02
B0
02
F8
04
F1
07
CA
FC
07
E6
16
12
27
12
00
1F
0A
06
1F
22
04
DD
0B
00
C7
FC
D7
EB
01
F3
10
F7
DE
EE
00
FD
06
3D
FF
C6
22
23
EF
11
0E
09
11
F6
19
11
EA
10
0B
01
29
F5
F1
0F
F5
11
F4
DB
FA
07
FF
ED
03
FA
00
0B
09
31
10
19
1B
32
BF
FE
05
06
05
01
F9
E8
0A
01
E7
28
24
22
1C
0B
08
14
24
06
39
FF
FC
E8
02
09
07
E4
00
12
1C
ED
07
14
D3
38
0D
FF
04
29
26
41
D7
DD
A3
DE
EA
D1
4D
1B
CF
A4
D5
EA
06
F7
F8
1C
ED
07
3C
01
08
F2
0F
08
46
F9
FC
FB
DB
0F
F5
29
0D
0A
FD
24
07
F7
DB
04
FE
E8
21
44
19
09
DF
F6
FA
0F
01
14
F2
00
06
BB
FB
01
0E
2B
09
FC
1C
1F
F5
E6
F6
DC
20
C8
F7
E9
57
FC
0E
14
D8
DD
E9
E6
DD
EB
E2
E2
0F
EE
DE
03
FD
F4
1C
0B
C0
1C
29
E4
05
12
FC
0B
EC
E2
DA
F9
17
1B
17
E0
09
FB
F9
2C
F8
0B
F4
F5
0B
E7
25
06
FC
1C
3F
0D
1B
14
14
E8
EE
07
FC
EF
01
F2
02
F3
0E
FB
23
0A
10
EE
FB
0A
07
01
EF
07
1F
3E
07
39
11
21
FD
F9
EF
F1
DE
1E
F8
25
D4
0C
18
18
E6
E1
FB
26
3D
F0
D0
DF
F1
13
30
EB
9E
D3
0B
FC
D3
09
14
00
F0
21
E6
08
F7
0F
7B
18
BC
3C
D2
DD
00
08
11
C5
23
ED
03
EB
08
ED
DD
F0
09
33
F6
06
DD
54
13
E1
EE
23
1A
17
DF
35
41
A4
31
31
08
F9
95
1C
F4
1F
06
26
12
21
FF
F9
0A
E5
0F
C5
2E
02
09
D2
28
CD
40
E3
F6
0F
2D
A8
04
D6
E9
CC
51
D3
FE
20
BA
01
32
16
BF
0B
F1
C0
A7
E9
F9
16
F4
E6
1C
E1
1C
EF
FE
FD
DD
0D
0D
13
C2
04
23
FA
0F
F5
0C
E8
E7
F6
F7
E5
37
2D
1F
16
F1
1A
EC
DD
17
02
FB
06
FE
FD
19
F5
0F
D8
37
11
1A
CF
EA
F2
D1
EF
FF
03
CB
EF
F5
EB
13
1B
05
18
F9
05
00
03
FE
FB
DB
D5
E2
24
0F
01
C0
FB
FD
17
0B
DD
F6
0F
15
EB
E7
A1
05
25
31
F9
FA
06
F4
FB
DE
EB
13
17
2D
E9
0E
A9
08
F1
1A
FE
06
E1
2D
F5
1C
06
B4
2A
E7
2B
E7
06
0D
FC
F0
08
0D
1C
1C
CF
F3
D5
E3
FD
0D
E8
1F
F3
BE
12
EF
E9
EF
35
39
08
14
EC
DC
EC
E1
D7
18
E9
27
38
F3
EF
09
1C
FE
11
D4
F3
3A
F8
E4
38
E4
14
2A
06
13
0D
C2
36
21
26
F2
10
BA
01
FC
46
F6
01
0C
FB
27
C8
CF
A3
C9
19
47
F9
DD
09
FF
F3
12
03
F3
16
F8
0B
F9
11
FF
E7
CD
FB
1B
0F
01
18
05
08
1F
01
03
E3
1E
0A
E0
15
07
FB
C9
2B
F6
DA
1C
F6
0F
FA
1A
0E
F6
F1
06
02
CA
F6
14
0E
F4
07
0D
1C
19
FE
0C
01
15
FB
2B
F6
D5
E2
ED
00
F4
FC
34
00
0D
D7
0B
DE
0C
11
0C
19
20
25
12
0D
DB
CE
F4
CF
36
11
E0
C3
D4
FB
05
0A
0A
02
04
F5
FB
06
13
14
2F
FD
38
19
1C
ED
30
4F
C0
1D
EB
E2
F8
E4
1E
1F
ED
E1
DC
01
DC
0D
D5
D5
F9
56
23
D8
88
F9
20
19
3D
F6
2E
0B
EB
E3
D6
37
4B
0A
F4
FB
ED
C3
05
17
F6
FE
00
32
26
16
F3
1E
F0
E1
F2
0B
08
F0
FE
D9
1B
0E
49
3D
16
EF
EC
10
27
EA
16
FB
20
10
07
D6
F6
1B
41
CA
DE
F7
F1
0B
11
17
FD
EF
3A
F0
F6
B4
11
03
15
12
12
13
FF
FB
15
1D
13
26
FD
E8
F2
E2
00
E5
11
30
05
F3
E7
F2
FB
F3
0F
01
F9
F1
13
03
F5
EA
37
04
30
0F
15
F4
F6
AC
EA
D5
DC
0A
0A
F1
F2
F0
18
FE
01
0C
11
1E
01
F1
F1
CF
10
2B
CE
DF
F0
10
FB
FC
D3
D4
CB
27
27
19
C9
FE
00
1B
0E
27
C6
EB
FB
BF
10
F8
E2
F0
12
1F
E1
FB
D4
FF
03
E4
E7
01
00
F0
FC
D0
FE
02
06
1E
46
F6
F8
25
0A
10
06
BE
F3
00
14
DF
FD
D9
CC
02
50
0E
29
0B
06
AE
BC
EF
E0
21
0D
1A
11
0D
F0
E1
0E
2E
2C
10
1C
DC
C4
D3
ED
21
CE
CC
D2
EC
09
ED
02
DC
F9
CC
AD
DA
D3
E0
C7
F4
0E
D4
BD
EB
15
1F
18
06
C1
F6
18
41
EC
0C
D1
25
06
FC
BC
17
D4
13
C3
09
37
FE
D1
F8
0D
06
28
16
FA
07
FF
F7
0F
FD
10
EF
EA
F0
0A
FA
0F
F9
06
06
0E
07
F4
FD
05
1C
BB
C5
0F
38
2E
16
15
08
05
2F
23
C2
D6
07
DD
E1
04
0A
FB
05
BE
F4
FC
FA
EE
0D
00
17
12
0E
EA
E6
F4
13
10
17
1E
04
D9
DF
DC
E5
E7
05
23
00
11
E9
0C
ED
D7
29
22
F8
0C
FE
06
0F
43
44
0E
0C
1C
26
EF
0A
EF
08
16
EA
36
F1
20
12
12
07
04
DD
F5
F4
1B
17
E7
13
09
08
EC
41
FF
13
AB
DE
12
E0
03
01
0E
17
CA
F0
FE
F0
DE
0F
EF
17
FC
07
EF
BE
06
FC
2C
33
09
01
F2
EB
34
F9
23
0B
EC
D8
FC
E7
00
16
ED
FE
30
13
34
2E
02
F9
04
D2
04
DA
09
E1
EE
2B
1F
20
09
07
E9
D6
FD
EF
E2
D0
D5
FF
16
1C
2C
13
03
30
45
37
EA
42
F4
3B
F4
2A
33
C5
FD
F3
31
28
1C
15
01
DA
E3
F9
F3
F1
0E
10
29
09
4D
18
0F
F2
D4
DE
F9
40
F7
0D
F9
07
0E
FA
F1
13
C2
FE
0A
1A
03
16
F9
11
13
20
08
E6
E6
C7
C2
F9
DF
F1
27
11
14
06
17
34
FA
20
38
D4
E3
0A
0A
F6
10
13
FA
E8
0A
10
2C
DF
02
FB
0A
02
08
CD
CB
E8
29
27
2F
CB
1A
F1
11
10
FF
E2
3C
FE
E9
F0
E9
25
04
C4
E3
05
D6
32
0E
F2
E4
D3
0B
FF
EF
F3
06
EE
E7
32
EF
ED
F8
FF
0F
31
35
CE
D5
FD
F8
09
D7
FC
0B
ED
DC
2A
01
E9
F2
03
2D
FE
18
F9
E9
17
B0
EE
01
EC
F4
FE
CA
D0
EE
18
E7
1A
14
0C
EE
EC
E5
F6
E0
05
E7
12
12
23
FA
09
E5
D2
D9
1D
E3
0D
C3
B3
E1
15
F6
07
1C
0F
19
01
07
FB
E7
04
FA
07
FB
F0
09
12
07
0E
40
F0
11
02
29
0B
0C
06
F2
B4
1D
FE
34
C6
ED
1C
19
0F
EF
0D
DD
FF
0A
0E
E9
F0
07
04
E3
08
1D
19
F6
F2
FC
01
E5
05
FD
EA
19
11
1E
06
05
ED
FE
EC
E6
F9
EB
AD
DD
EF
F8
CC
FD
36
16
17
04
13
04
ED
F3
DD
F0
06
E8
DD
F7
00
05
11
0C
50
F7
F9
CB
0D
03
13
EF
EA
EC
0B
E0
16
22
F4
2A
19
13
F5
E9
DD
D2
11
1B
15
09
11
E1
EA
0A
2A
E2
05
E6
E0
F2
E5
F0
E5
DE
FA
0E
FC
FE
1C
0A
FB
EE
2F
11
0E
E7
EE
03
DC
F1
FE
03
EF
00
1C
F9
FF
08
E0
03
01
03
08
28
E4
24
0E
EF
0D
34
F8
E9
05
CB
DD
BC
27
09
14
FB
07
1B
0C
1F
11
FB
07
15
E9
0B
BB
DA
06
0F
DE
FB
F2
40
F9
16
EA
16
1B
E0
0D
04
0F
03
11
EA
39
01
38
09
E7
37
F4
A0
0D
1C
E9
03
ED
12
26
DF
F3
0F
FA
3A
F4
E1
2E
08
FF
F9
09
C2
F2
FA
26
11
B9
0A
FB
E6
E6
FA
0B
ED
0C
22
FC
CF
1C
0D
E7
F3
03
12
1B
1D
11
0F
E6
28
12
F4
F1
BB
0B
1D
26
27
A6
E1
D7
35
1E
E3
A6
F1
F8
F8
AD
03
18
28
F9
16
D4
9C
F3
A7
22
D2
EF
38
FE
EB
DA
E9
15
D5
1F
02
02
32
EF
27
1D
01
C8
0B
FE
ED
ED
B0
DF
19
BB
2A
1D
29
CB
C8
22
1C
08
12
09
EA
E6
F6
D8
FE
04
F8
08
CA
F5
F8
F4
0A
A8
19
EC
E6
0F
BF
0A
06
F7
2A
D4
04
37
14
1F
13
E9
B0
B3
EE
1F
FD
03
06
FF
EF
F9
F9
41
2A
D8
22
45
37
B8
E4
11
FD
29
0C
00
1A
F5
1A
09
F2
CC
F0
E2
EA
ED
FD
04
EA
FC
08
ED
0F
04
D6
EC
04
FE
05
18
D6
02
0A
1C
DA
DF
EC
10
04
DC
E4
FD
E4
DF
E8
D7
D4
06
F6
E0
20
D5
09
C9
26
E5
0B
16
FF
25
D9
E7
E1
0E
27
04
F7
F0
E5
11
09
01
EF
DF
0E
DC
C9
D0
F0
1E
F0
0D
ED
FF
09
F2
15
16
DD
F7
DB
E3
F8
FA
E6
13
29
C4
D3
06
C7
FC
F2
DF
0C
27
EA
DE
F7
1B
BB
1B
12
E0
03
02
1E
1E
E3
F6
13
0A
0C
E8
F6
FD
D0
D7
F4
DD
C4
C8
EA
1F
07
FF
22
0E
0B
17
09
33
06
F1
F2
F5
CF
1B
DD
FB
F5
DD
D8
D2
D9
F6
F9
2B
FC
FA
1C
1C
17
26
EF
14
CC
FB
EA
11
C3
03
7F
1F
01
13
12
0F
0E
06
E6
23
20
10
26
E7
E4
09
FA
1F
0C
E1
F0
F9
1A
D1
42
0D
01
11
15
0F
F3
FB
34
07
2D
10
EF
06
07
DF
23
C3
E8
0A
C6
FD
EE
E4
C4
29
1B
D5
14
07
00
EC
E6
04
0A
E2
C7
1C
F3
0F
15
17
35
E7
EB
DA
F9
BC
C1
02
2B
C6
1E
04
17
F8
C8
E7
0F
23
06
EE
DD
10
1A
C4
D6
EF
D8
17
20
D6
3B
F3
00
03
31
D6
F3
DB
15
1A
20
FD
2F
1B
2F
E4
F6
CB
1F
F4
DD
C2
FC
E8
35
E8
02
0D
7F
FC
8B
0F
F2
51
FE
23
F9
FF
F0
00
25
33
03
F9
D1
E7
CA
F9
F4
B3
60
56
DF
29
DE
FB
00
9F
20
E5
0A
54
11
0A
07
2F
4C
36
E1
04
2D
02
F3
F2
DB
E2
4B
A6
32
F6
DA
F9
0B
3B
CF
F9
3D
3C
E0
DF
F1
29
07
EC
26
FD
17
FB
3C
1C
EF
10
FA
EE
0A
02
12
0C
F3
E6
12
1B
FF
F2
F0
F7
CC
D8
11
13
FC
E4
FC
D0
F9
01
E5
B6
BE
12
07
02
EA
13
00
12
FF
06
03
07
D0
C1
ED
ED
07
F5
E0
FC
F7
FD
DC
07
05
0B
1D
15
DA
01
11
C8
F5
FC
F6
19
00
DB
FE
10
E0
26
FB
F0
16
1C
17
13
F2
F3
FE
1F
FA
F7
F5
19
19
FE
11
1B
EB
FA
F9
DC
CC
24
EF
23
17
F9
DF
ED
00
F0
D5
F1
25
CD
D3
DC
08
ED
1A
DB
FF
16
0E
F3
F8
F7
DC
F0
D8
B5
D7
F7
F7
E8
D6
E8
B4
0B
0C
1A
30
2D
10
EC
DC
01
08
F2
C8
14
08
CB
D9
E5
F6
DA
F6
11
F9
0A
1A
F5
F5
FB
C1
E7
C5
08
09
FE
0E
0F
07
F5
E0
22
00
DC
FE
E0
0C
1F
F5
FC
FF
22
FF
F5
FE
D4
22
0D
13
13
10
FD
20
1F
0A
FB
05
FD
19
04
F4
F3
11
0A
D6
CF
EF
ED
D9
EA
F9
0E
00
2E
14
0D
03
D2
0A
06
E7
EA
01
F9
0E
2F
DC
E4
13
1B
06
22
DF
ED
10
F2
EA
E9
01
0B
07
E2
EA
0D
F9
11
FD
F7
F0
E6
F7
0B
EA
14
04
D2
06
00
E7
EF
FA
FD
03
E4
0B
F7
C9
DF
19
08
24
1B
06
02
0D
DF
CF
FD
F5
08
33
EF
12
28
E7
C5
16
EF
E2
29
2D
FF
0C
09
04
2E
34
17
1C
3C
16
18
22
17
01
E4
3A
F6
03
22
18
FD
03
1D
F2
F5
CE
0B
CE
E3
0B
10
23
0A
01
EE
0C
20
F2
00
FD
F4
B5
ED
0A
FC
FB
E5
03
07
18
0A
0C
F9
14
2B
22
40
36
3A
17
FF
1B
30
F5
0E
26
F4
08
E8
EF
FF
37
12
1A
0C
27
07
FB
EF
0F
0D
08
C6
03
E1
DE
03
10
CE
E7
CC
02
0A
22
EF
FA
F8
22
34
0C
FA
BE
DC
D7
D9
C6
26
0E
A3
44
18
18
12
0E
0B
1D
08
18
F7
0C
03
07
D8
E2
CB
F5
10
D7
E8
0D
C8
02
1C
F5
1A
0A
E6
03
18
33
F4
EF
FF
0E
07
1C
30
EB
25
2D
DE
0B
F8
E4
13
B8
DF
F6
F8
D6
F9
F0
07
05
24
02
E4
F7
14
03
31
08
EA
D4
D5
E4
0C
02
F9
06
E3
DC
F9
B0
E4
1F
04
15
17
07
D4
F9
F8
F6
F5
CD
BA
C5
F0
DD
FE
05
08
FF
06
0F
02
E2
3A
55
F2
F4
08
EC
2C
19
EA
0F
1D
F9
04
FC
E0
FB
0F
EB
F2
FD
F7
0E
23
07
05
0D
01
13
0A
2B
22
F6
B0
E5
D2
E8
D8
DF
FD
12
14
12
06
02
00
01
E9
EF
12
09
D8
DA
DF
10
20
E9
C7
19
37
21
16
0E
EA
E2
EF
F7
F2
03
FA
17
2B
E9
11
15
20
0B
CF
F7
15
0D
02
14
E3
B7
09
CF
DD
01
CA
2E
DE
F4
D2
1D
15
E1
0F
AD
11
06
E6
E4
31
12
BF
16
1B
30
1F
E7
E1
05
FA
BB
04
F7
FE
D6
05
12
C8
DC
11
24
F7
06
DD
ED
CF
C2
E9
EA
ED
E7
E0
F7
20
E4
03
DC
12
F5
0D
DA
FA
2C
18
D7
DB
13
20
E6
CF
DE
0B
FC
EA
3A
FA
E7
E2
EB
1F
FD
F9
FB
08
24
E1
F3
E3
F3
FB
21
18
FC
01
EF
0F
04
F1
EC
04
D7
D3
05
0F
EC
D8
0D
09
0D
FB
F7
F2
03
0A
07
EE
E2
02
0E
22
1A
1E
0E
23
F7
09
08
03
06
0A
0D
00
EC
FB
13
2F
EC
0A
FC
0E
05
24
F1
FE
09
EA
E5
D6
0D
05
FD
E5
DF
F0
FD
EF
0D
0C
F4
05
F6
ED
E5
F9
05
F7
20
1F
FC
E9
E0
F2
0F
06
D6
1C
12
F6
12
EF
FE
D1
1D
27
E4
D6
1F
09
1B
03
F4
03
27
CF
E9
FF
F9
C6
C2
2E
06
E7
F6
F9
E1
FA
E1
D6
09
FC
1D
05
07
FC
1A
02
F9
04
23
06
DE
FA
19
FE
02
1C
16
D7
14
20
E3
F3
00
B3
06
E7
E7
10
08
08
1E
04
E6
CE
DF
0A
12
D9
29
2A
0E
14
FA
0B
27
1C
39
16
D6
F7
00
1F
AA
89
ED
11
FB
18
05
D9
20
0E
E5
02
CD
E8
FF
B6
E5
1E
ED
0F
0E
D3
F1
E2
23
CB
FE
FC
1F
05
F5
F2
FE
2E
07
DD
F8
EE
F3
FF
F4
1A
18
F7
1F
EF
08
1A
FF
0C
06
22
F8
0C
FE
FC
EC
DD
1D
0A
FB
09
E2
BF
2B
12
00
E4
1A
21
08
02
C8
09
01
E0
10
E6
EF
FC
04
E4
10
41
20
09
06
DF
20
1D
EE
EB
ED
D0
E8
06
20
01
00
41
F7
F9
E6
EB
0E
25
EC
09
F2
09
02
1B
20
02
12
09
E9
33
01
12
1E
1D
E6
1E
04
0C
23
FA
E7
FC
F6
FF
C8
15
1B
04
3F
EF
3E
F8
0B
16
22
19
01
1A
2A
1D
1D
0A
01
ED
09
06
0C
F5
EB
E3
E8
E6
D8
15
DD
E5
19
0A
EC
F1
29
03
07
F2
BF
C0
DF
E5
D2
DD
D0
F6
F3
10
E8
01
E7
FA
EF
1D
D1
E9
FF
E9
C5
FE
B7
30
34
0D
0B
F2
FC
D8
EE
EC
E8
FB
C3
F7
F5
D6
E5
23
10
14
01
01
02
18
15
09
02
E8
D2
14
03
12
CF
09
EB
D8
D1
E0
E4
21
0C
E1
1A
ED
FC
E3
0D
07
CB
04
F2
E9
10
13
EB
F5
0D
28
13
15
12
06
DC
DB
03
1A
09
1F
3C
0B
0E
2E
24
C3
0E
2E
06
EF
F0
DC
FE
F2
08
FE
05
06
FA
28
0D
16
0D
14
F8
D5
07
1E
02
F1
1C
1A
DC
11
19
C9
AC
01
04
17
3A
04
F2
FD
08
2C
F7
F1
E5
EC
F0
FE
FE
E8
EA
F2
0E
07
FB
F9
0E
2F
F6
00
01
12
F8
1F
03
FB
0F
08
FE
FA
F0
1C
23
EE
08
05
EB
06
18
10
24
0F
F8
FA
10
DC
FC
EA
F6
DA
DC
ED
1A
1C
E8
F9
E4
F8
EE
D4
EE
FD
0B
EB
04
04
04
FD
F7
FA
03
0E
0F
19
ED
00
C2
0D
DA
0A
13
13
2B
09
06
1B
12
F9
FC
E8
08
CA
F1
C7
F6
EB
2B
0D
35
03
EB
04
EC
1B
1D
F2
0E
E0
E3
FB
D1
1F
1B
15
FF
E0
F2
C6
19
03
DC
03
15
D0
DA
F1
F5
CA
DA
14
09
22
F5
FB
F6
08
F4
FD
0F
FF
D6
EF
D8
EF
01
E7
E9
13
1E
15
20
09
E4
16
16
EA
DD
F8
DA
CF
E5
F2
F8
38
2C
E6
F2
AE
02
15
E7
16
F4
D6
0F
1A
11
E3
0A
16
06
02
FE
DF
EB
1A
ED
2A
F5
58
1B
F8
DA
D9
09
F8
E2
FC
FA
20
00
E4
D1
FF
0E
00
D7
A7
E0
18
EC
F0
E1
F1
CE
CA
16
F7
EB
14
11
E7
F4
E8
D9
1C
FF
3F
49
1C
E6
DE
D8
EF
2B
04
04
32
05
09
03
E1
E9
02
DF
E8
F9
E4
C7
E9
E3
0D
F1
D4
EF
12
16
FA
23
DC
DA
FA
0A
E8
07
15
EE
1F
F5
F4
FE
D9
B6
F7
F4
FD
14
E9
25
F8
F7
27
E4
EA
BC
23
1B
00
F0
03
24
1B
BA
E0
D8
E8
35
41
DE
CA
1A
F8
CD
FB
CE
D3
12
E7
EC
F7
04
2B
FD
F2
2D
D9
F7
F2
F1
12
F9
DD
DD
1E
FA
EF
0E
FC
EB
48
CD
E0
F1
D7
06
1D
E6
F5
13
DF
0B
23
DA
C9
02
7F
46
C7
06
F9
3B
07
00
E9
0D
1B
E2
FB
2E
C4
11
F4
08
FA
EC
2D
DD
E2
48
E3
E0
19
24
0D
E7
FB
1A
0F
D9
09
DF
E9
12
FB
15
0F
F3
F6
01
21
F2
04
09
07
01
0D
E3
DF
F6
EB
D6
FD
ED
F8
F8
D6
08
03
FA
1C
07
F8
13
1B
06
F4
04
11
F6
F2
FD
FE
00
FF
FC
06
E1
0A
20
21
07
01
02
1F
0E
01
0C
16
01
07
FC
DA
EC
D9
FF
0E
31
05
F6
FD
1C
11
F0
EE
0E
03
DC
07
F8
12
17
F1
D6
E1
1A
F1
F7
FE
1D
08
0F
0F
E5
D9
E8
17
F2
F3
0F
F4
E9
DD
FF
1B
F8
EE
DE
D1
1B
D8
ED
12
F7
07
23
17
2C
E1
2E
EB
C5
DF
D3
D2
F0
FF
F4
18
2B
09
05
2D
1E
39
05
E3
F8
09
F3
09
FF
CF
EA
EB
17
F6
02
F2
F0
0B
FA
08
08
F6
3E
08
08
ED
EF
F4
01
05
F0
37
2B
FB
2A
11
03
2C
0C
3D
0A
1A
FF
04
06
05
A4
CB
1F
C7
D2
3A
29
24
FE
1D
1F
00
FC
0E
25
F4
00
E6
F9
02
FF
FF
E9
ED
F4
F8
12
D2
C2
E0
E1
E2
F1
1A
10
08
EB
EF
CF
07
08
07
10
07
FF
EC
0C
10
3A
1D
1E
17
05
05
0E
06
15
06
01
0E
EF
F3
FB
16
0E
FB
DE
FC
02
13
06
0B
11
FE
19
E8
D6
CB
1F
F3
13
31
00
0D
F6
16
0E
06
0B
0D
E4
E3
F0
1F
07
F7
02
0B
F2
23
08
02
F5
F1
F0
E8
F5
0A
FF
0F
E7
F4
10
1B
EE
D5
35
B8
EC
1A
2E
1B
EC
1A
DE
07
20
20
E4
03
0E
FF
E1
EF
CC
37
FB
07
F8
F4
D5
F0
21
0A
D6
F2
0F
11
0F
CE
23
17
E6
2F
03
E8
06
35
0C
08
20
F3
CD
C1
D7
22
23
FC
00
D6
F7
22
0D
03
06
EC
01
12
35
E6
E6
FB
27
AA
1C
25
F7
FF
22
0F
0B
0F
CD
F2
27
24
01
17
1B
20
23
10
E8
FC
D4
13
CC
E6
F1
03
EF
03
00
13
05
1E
08
F9
C7
EA
ED
00
D4
17
2C
E3
D2
FA
03
DF
F1
FE
EE
CD
FD
07
ED
E6
E9
CE
19
FF
23
0E
F7
FA
0C
03
F1
12
F4
F9
24
FA
DE
30
F6
0E
FF
05
19
12
17
0F
0A
04
09
F3
FE
19
07
F8
F9
FA
FF
E6
ED
1C
F5
30
10
E1
FF
FA
DE
20
1A
24
15
0F
FE
ED
FD
11
0E
04
DA
D8
F7
12
E2
10
09
20
0F
F7
14
26
08
E2
FA
EC
FB
1E
27
FB
D4
F5
1E
F5
F7
06
04
F5
CF
F7
FC
08
1A
1F
EE
00
0F
FA
21
25
0D
FC
08
F5
F7
26
E6
F4
13
00
19
01
E4
0F
0B
CE
DF
FE
05
FA
0B
10
F8
0F
F8
E6
E9
15
11
E0
E9
E8
01
00
E0
F0
F8
F3
02
19
F9
03
0C
0D
F0
DD
D7
FD
05
0B
F9
FD
04
F7
F5
F1
E0
02
13
F1
00
E7
FA
20
E6
01
FD
E9
0E
EB
FE
17
0B
06
1E
08
F3
1A
37
13
24
FF
00
1C
12
10
EF
01
0B
25
E5
EB
EE
0C
ED
0E
3B
1D
20
FE
1C
05
FA
01
0C
CC
1A
0C
11
08
20
08
FA
EC
07
F6
E8
21
F7
FC
37
11
16
36
2C
1B
D0
F7
F5
D6
F1
E4
DB
E3
DA
12
FC
C6
1C
05
3D
FD
D4
E9
F7
17
F5
DF
F7
E1
07
0F
12
A2
C9
CF
EF
0B
18
00
13
01
EA
F2
F6
D7
0C
E7
21
F6
09
FB
03
E8
C2
E9
1A
D1
B6
CF
11
25
FB
FF
D8
F3
04
03
0E
18
FC
32
EF
E1
CD
EA
FA
04
F0
FA
FC
F0
17
24
01
E4
DF
EA
22
0F
FE
18
00
FC
08
E6
D9
E9
F5
CA
DE
FB
D4
F5
0A
EA
08
EC
09
06
03
06
FB
0C
00
FB
C1
D5
F2
0E
F3
D3
F6
F2
22
02
E3
08
09
06
2E
EF
F5
F9
01
E5
E0
F6
E4
EA
DC
12
DC
F2
DE
02
06
E2
F1
BC
F5
D3
C2
30
13
1D
12
F8
F4
E4
FF
F6
0A
F7
08
F3
EE
D1
D3
DF
ED
BC
E0
D2
17
F5
1D
D7
01
15
EC
F6
0D
19
DF
D9
09
EE
03
FD
17
12
E6
0D
E4
C7
FA
B0
31
F3
EA
18
09
22
19
09
F3
F9
19
0B
E3
0E
F2
19
03
E9
09
05
0F
17
D4
EF
EE
24
03
34
10
EF
20
19
17
F8
3E
F4
F7
01
1A
CB
0B
0C
16
F0
F1
FB
E9
E8
BC
08
FC
13
FF
3F
F0
0A
FB
10
FF
0C
F9
E8
FB
21
0D
EE
07
FB
DC
15
F4
FC
FF
E1
E2
11
01
E0
F8
18
31
DE
FA
E7
40
FE
E0
22
1B
EF
24
13
F4
DF
FB
00
FB
04
FE
E9
07
EE
17
0B
02
F1
14
C7
EC
23
1C
F4
E1
07
00
F0
18
3E
1C
03
FB
F2
F4
10
1A
E9
0B
06
00
EB
15
FE
E7
EF
F0
B2
C7
F8
48
21
FA
F8
F6
FB
F2
16
22
E4
FC
00
FD
06
0F
01
0D
F5
E3
F7
A2
EB
03
1F
A6
C6
F7
D1
EA
ED
39
E4
04
F9
10
0F
2D
2D
15
18
FB
D5
E8
FC
D2
F2
E3
EE
1B
19
11
19
41
26
CD
CE
CF
FA
1C
D5
B3
E1
F7
E2
28
13
0F
24
1A
F2
E8
FC
C6
F4
EC
E6
16
D8
0A
0A
02
EA
A8
F0
C5
ED
0B
36
FC
29
E2
DC
EA
2F
1F
0D
B7
C6
0A
20
29
31
DD
DD
34
0A
1B
FE
21
EE
1E
CF
BE
BF
05
02
F9
DC
E3
ED
34
1A
40
0C
02
0F
F8
EB
D9
01
ED
28
E5
E8
00
1D
F7
F4
18
00
E0
A6
F3
08
0C
22
29
E2
DB
1E
02
1A
DE
24
F7
05
10
EF
08
D4
08
D2
0D
2E
D0
0A
D9
19
F9
DB
25
EF
FD
EB
0E
11
E9
04
0E
2F
0D
13
F9
E6
00
0E
08
23
E4
E7
FC
08
F3
11
D7
D4
F7
2D
0F
18
03
CE
F0
16
E6
EF
0D
03
02
1A
F4
E8
03
24
E1
D2
17
36
20
0F
F0
15
15
23
06
0A
19
FC
FD
13
08
FF
EC
FC
03
1F
12
13
20
0B
AE
E3
D1
E2
E0
FD
02
0A
11
E5
1E
F7
FF
D5
13
FF
F0
10
E4
E6
13
E4
23
D2
0F
3E
F8
EB
07
E8
FA
FB
0C
F0
F7
FA
10
1B
CE
07
0F
02
EC
09
0B
D3
00
03
08
04
F6
E0
D3
F5
15
0A
F5
1F
13
16
EC
02
14
31
23
1A
09
F7
1C
11
05
E4
06
F9
E4
15
02
E7
F4
08
16
F6
EF
00
0C
0B
14
D6
07
03
0C
F7
FA
14
15
12
E8
ED
02
0D
F9
FD
EA
E6
EB
F7
E0
F5
F8
FA
0D
BE
E4
DC
07
03
22
DE
F2
F1
F8
1E
0C
06
FE
03
F1
F6
E8
1B
01
ED
EC
00
FB
EA
22
0A
06
0D
12
2B
22
13
DA
E7
E6
BA
16
15
1E
18
16
41
15
10
FC
E7
DD
0B
F3
F4
03
F8
0A
03
FE
12
3B
5E
3B
0D
1F
1E
E3
E6
DC
EF
31
0A
08
27
14
07
15
F7
07
2E
0D
27
37
0A
F5
FF
05
ED
F8
0E
F0
E5
E5
F9
12
F7
24
0C
D9
EF
D7
E2
0C
0C
13
0C
FA
05
FD
16
10
02
FD
0C
D4
D3
DD
DF
19
0E
17
DB
D0
0B
F6
04
E8
D9
04
D8
14
12
03
04
26
FA
07
FC
00
EE
D6
1D
0B
00
D5
F4
E2
EF
CA
C1
E7
FE
15
00
18
F2
05
17
D6
0B
BE
D4
07
FA
EC
EA
DD
2E
FB
0E
F9
F1
FF
E7
08
21
E7
16
EC
FB
D9
08
27
FE
14
28
2D
FE
F6
1A
0E
EC
12
F3
EA
14
FA
D4
ED
0E
1A
2A
05
FC
E8
FE
00
1C
F3
10
EC
DE
F1
1A
E9
07
1B
06
F3
D5
D5
EF
E3
1E
02
F3
F8
F4
17
09
09
E4
11
03
FE
04
FA
1B
FA
FC
01
05
FB
FE
E9
01
16
01
16
FC
F8
E9
1A
1C
1F
00
10
FA
EF
F6
F7
F5
1E
07
15
00
FF
C0
F6
38
FE
FF
F3
10
0E
F9
E8
0C
08
01
09
02
14
0B
ED
09
0D
2D
FA
18
07
F0
FE
0D
08
06
EA
EB
E7
21
1C
17
FB
0B
0F
09
F2
E6
DB
00
12
F1
FC
04
05
06
EF
F5
FC
B6
19
D0
B9
E9
D6
01
FF
FD
26
28
D9
16
3F
05
F3
C6
0B
08
BA
DA
26
FC
20
09
F4
0F
01
EB
FD
E0
0F
F9
06
08
D5
DA
F3
23
F8
05
FB
28
1F
B7
27
26
DD
19
FA
19
2C
23
FF
F0
15
0D
F6
15
E6
E7
F2
E8
05
EF
FB
FA
DD
12
05
24
FA
EE
EE
DF
11
F6
12
FB
DF
D9
2E
35
EB
F9
1B
03
07
24
0F
3B
E6
F2
EE
10
FC
FE
19
23
0D
EC
03
DE
13
03
10
30
E5
06
07
E5
04
24
E3
E9
E6
E7
06
11
07
C7
F0
05
EC
B4
FB
05
10
13
03
F0
B9
C1
E9
17
04
14
02
E0
0D
CD
CF
F9
E9
02
03
D6
F8
04
C4
EE
F4
02
C9
CD
DE
0E
0D
27
D1
14
48
00
23
0E
CB
04
DC
DA
BB
E8
F1
05
06
04
1D
35
09
F9
DA
0E
21
01
23
FA
F0
52
E7
15
09
F6
FE
09
F1
E7
D9
E9
01
FE
FC
D6
E8
00
F4
FC
FF
07
FB
08
FC
0A
11
19
03
FB
0C
04
09
F9
02
09
0D
FF
FE
02
FD
29
EB
FB
FC
01
0B
0B
0D
FB
0A
14
13
1B
12
06
08
01
0C
EE
EA
04
0C
EA
EB
FE
07
EB
E8
0C
F1
06
12
12
1A
E8
E3
03
01
F7
00
10
ED
08
E0
E7
E5
FC
01
EA
E8
D1
E1
15
0D
07
CB
F2
E8
03
0E
19
05
19
07
05
12
F2
FA
F9
F7
08
0B
F4
06
1F
04
03
02
F8
06
00
1F
FC
FE
EF
DB
CD
BF
FF
F6
F9
11
03
05
FB
E8
EB
D8
D1
AC
24
0D
01
13
09
12
FF
21
06
10
F1
10
0A
FC
FA
F4
0F
F0
F5
0C
28
D8
D8
E9
DB
F7
E2
07
F4
FA
F5
0F
FB
0A
3B
22
F6
E0
EA
FA
E0
F5
16
01
13
F5
03
06
FD
EF
F8
1C
FE
10
33
ED
DA
FD
F6
2C
01
D0
F4
27
E0
E3
ED
03
01
05
FC
15
F9
DE
9E
F0
F5
19
DC
D0
33
05
E9
F8
1C
FB
FA
19
0B
DA
FF
06
10
D8
E3
EE
CD
C3
3A
0C
C9
E0
0E
05
3C
02
FF
0B
DF
23
EE
CF
F1
F6
F9
41
FF
1A
03
F2
15
0F
18
AE
EF
1B
1A
3A
08
F8
DF
29
E6
E9
D8
11
03
19
0E
DF
FE
25
CC
0F
2E
1F
E1
0D
EE
17
F4
0C
16
10
DC
08
17
F3
DC
D9
02
0A
FA
1B
F2
F6
E4
0B
D7
C9
D8
F9
EF
20
F0
20
09
10
DA
18
E3
0D
13
E8
C7
FE
13
F3
08
13
0D
D8
E4
F4
12
18
03
E5
10
FA
F3
FA
05
ED
0C
11
D5
33
00
F9
F3
E7
09
0C
E1
E2
E5
FE
D9
DE
ED
16
03
20
EE
02
FF
05
E6
EC
FC
1D
D4
EF
DB
DB
03
0B
09
21
19
EC
F9
08
FC
FB
0A
04
14
0D
0F
FD
D0
0B
EF
02
FD
FE
00
10
E9
0E
1B
D6
1F
E1
1C
A3
DA
01
F8
08
03
10
FF
E8
09
1D
FD
31
11
D3
02
F9
DE
04
FD
E1
E5
F7
04
E3
FF
15
EA
DE
D3
0C
18
EA
CC
F9
03
AD
E7
E8
ED
07
EF
DD
15
06
10
05
F8
FF
01
E7
FC
17
E5
D4
FA
26
FD
D8
B8
DA
EF
21
21
1F
19
F2
0E
DF
03
03
01
F0
08
FE
D4
C3
F6
C7
FB
16
DC
F4
0C
DC
F9
E6
05
1D
FF
E2
13
0B
10
F8
E8
CE
EA
EC
D4
CB
E6
F2
F9
EC
08
FD
0E
28
20
06
14
E7
14
AC
B2
E3
02
FF
18
F0
F8
FE
E6
C2
11
FB
13
F8
0B
15
28
B6
FE
FA
E4
30
25
16
ED
D3
18
0B
D3
F4
CD
D6
43
FF
06
E1
16
2A
EF
F0
FC
17
10
1A
23
21
F3
00
F5
1A
FE
FC
05
07
0B
E7
0C
07
03
E9
B9
FB
09
13
0E
10
F2
F9
DD
F3
F4
E4
02
11
EB
06
F1
11
08
F7
20
FE
08
EF
F1
0E
2A
13
20
20
0B
1E
18
12
1A
CE
FF
2F
F3
E9
EB
EB
D8
F2
19
02
0F
0F
E8
EE
FB
DB
09
1F
1A
26
E8
E3
0E
FD
D2
0B
0B
02
2D
00
02
11
DD
05
1F
10
02
03
05
08
19
DB
BC
9E
D8
18
02
30
F1
07
0E
FE
06
CD
F3
D8
F8
EB
27
FD
D1
E2
FA
EE
06
F6
F7
FB
D1
06
F3
FC
06
07
F2
E3
C4
E1
F7
FA
29
FE
01
FD
FD
0E
03
E7
E6
F1
17
19
F6
E7
12
15
1C
F7
09
13
DF
DE
F9
FA
2E
FD
FC
E2
F3
FD
48
0E
1D
FE
F0
23
1F
12
21
E3
E3
E4
FB
24
16
E5
D5
0E
CC
D0
E2
19
DE
F1
21
22
FD
1A
15
17
F5
15
EA
0A
EA
0B
EB
10
FA
B2
CC
F8
B4
D1
30
13
0C
06
31
FE
E6
FD
E2
10
F3
08
05
B7
CA
B6
14
F1
EF
16
06
02
21
0D
0A
C2
DB
42
D5
CA
E6
FF
20
25
FA
FE
09
F4
DF
CC
13
12
1B
F1
ED
09
12
E9
AC
F3
F9
EB
CE
D9
FE
24
17
39
F0
16
CB
E6
02
C4
DF
F0
07
F1
E8
B0
05
15
F1
25
E9
3A
D1
E5
08
13
00
2C
E1
F5
3D
0B
EC
FE
E3
E1
F2
F8
F8
24
F4
07
0A
0A
32
1A
D2
F9
FF
F0
0B
FA
EC
F5
05
04
1B
18
C6
DB
06
EE
12
DF
EB
FD
3E
16
13
07
FA
F1
E4
FD
DA
C9
18
E9
D8
2E
16
EC
F9
F7
03
0C
27
F9
EE
D4
FD
17
24
F6
FC
27
13
BF
AE
D7
05
F8
1D
ED
F9
FE
F5
F8
EA
0B
03
D7
07
01
FB
FB
EF
14
F7
F9
FC
2B
47
3A
15
FD
F0
09
F1
07
F6
04
EC
11
0F
2D
07
D5
F4
24
CE
09
03
02
26
07
0C
0C
34
0B
14
1C
23
3A
02
F5
DC
20
E8
EB
F1
05
07
EF
EE
1C
03
12
F2
DF
BB
E8
C6
20
04
08
E8
D2
FE
22
02
13
FA
26
33
FD
EF
F9
FF
FA
11
1A
45
16
FB
04
07
19
01
20
1B
E1
E6
EB
EE
2C
EB
EC
F9
0C
DB
00
F5
CB
FD
F7
DD
D0
FA
0C
02
0B
16
0F
FA
01
08
FE
19
E0
12
3B
EF
05
02
F6
01
0B
06
E4
18
0E
06
12
05
E9
F5
FD
20
20
E9
FB
10
0C
07
E5
26
F1
18
DE
16
C8
D6
EB
FC
D6
E5
FC
06
DE
BF
11
21
22
F7
F0
FE
26
0F
E3
03
2B
E6
DD
01
C8
04
F7
F1
34
04
EC
10
11
29
F5
FE
F1
D1
D6
0D
EF
D2
F0
D9
16
EE
20
F1
2E
1F
00
19
0B
1B
27
E5
F3
16
08
05
00
E9
BB
BD
25
FB
DE
F7
15
C3
1D
01
1E
2B
23
F6
F6
D6
AB
EC
07
F8
2B
28
37
24
FD
15
32
36
06
0C
00
30
07
E6
F3
A1
E8
01
23
EE
F9
09
E4
0E
18
04
DE
FD
1C
14
2B
16
FB
1A
01
0B
0C
12
1F
FA
0D
13
12
F1
FB
BE
DA
C6
F6
F6
1B
19
11
1D
10
3C
F2
E8
0E
09
C5
FD
C5
F6
B8
E1
1F
10
12
E9
02
04
FD
E6
F4
CC
E9
FC
0B
21
0D
F2
0A
10
F1
E5
DE
0B
FF
04
14
08
E0
06
E2
DA
0F
03
08
42
39
27
0F
1E
09
25
11
E0
E5
F3
FF
12
15
12
D2
E2
0B
32
0A
09
F1
E1
2C
F8
04
13
22
0C
22
12
14
1D
00
D6
EB
C3
BF
D6
FE
23
0E
21
1E
0A
F2
EA
F2
D3
22
F1
E6
FE
EF
FD
07
00
03
20
01
F5
F2
E2
D6
BD
E5
FC
09
DE
E5
1A
F9
14
10
1D
E1
00
EE
0C
11
21
B9
01
F6
1D
FC
D9
0B
C9
EE
C0
E8
D9
DE
19
17
1E
FF
21
20
05
E4
FD
05
F9
F9
FB
FD
0A
E8
ED
B9
E5
B0
01
DA
D3
06
12
C1
F8
FA
FF
04
04
22
05
ED
03
0B
1B
E5
0D
FD
26
E6
EA
F9
E6
07
11
E7
FD
F0
FB
0D
DE
DD
F9
13
F1
E1
FC
DE
C6
F6
12
FC
2D
FC
E5
19
E4
C9
C1
D8
D9
D2
26
F2
1E
12
FD
0A
FB
E8
D9
37
07
1B
F0
23
41
CB
F7
32
1E
20
F6
24
35
1F
03
04
0F
E1
0C
33
ED
05
E1
FD
20
2A
ED
E8
FF
F7
32
0D
E3
C8
EA
D9
FF
BE
43
1C
2B
18
0E
1D
0B
F0
FC
F1
0B
F7
31
E9
14
ED
E7
FC
21
09
FA
F6
0B
DD
16
09
45
09
F2
31
E7
2F
E1
1F
DE
05
11
D5
FD
08
18
39
24
F6
0F
EC
F5
B6
29
EA
DE
39
1F
F0
E5
21
22
6A
FF
AB
3D
09
29
FA
05
1C
04
E3
1E
E8
F5
14
29
E5
AC
FE
05
F9
E2
EA
0F
F1
16
E9
F3
C8
D1
4E
D7
C2
13
E6
EB
10
C5
E6
F2
F8
E0
14
26
1D
F4
2B
E5
03
FB
E5
CF
C7
D2
C9
0C
09
B8
EE
11
24
30
21
BF
FD
13
FA
07
DF
1F
FC
10
F2
06
28
ED
D8
E7
C8
12
1B
2B
DC
F1
DD
F0
58
FA
D4
25
E6
DA
B0
FA
19
20
BB
E5
C8
0F
25
0A
1A
FB
25
0E
17
28
F4
EB
FA
ED
04
1B
02
01
E8
D2
EE
F7
E1
19
F4
2E
31
24
EA
1D
ED
F9
1F
1F
E7
36
12
08
ED
EF
F6
F6
F1
E4
0B
1C
09
C3
DB
02
0F
D9
00
34
4B
CD
EF
08
EA
1E
F2
FD
EC
FD
EC
23
E0
00
17
0A
E5
1A
F4
F5
03
17
C1
A7
A3
EC
0F
1A
0E
21
09
17
0D
F2
DA
EF
DB
FF
F5
F0
EF
FD
11
F7
F7
08
1D
10
08
FE
02
FA
EA
07
F5
FC
0D
18
0B
29
01
F0
F3
08
FE
F5
F3
EB
FF
E9
1F
12
42
E9
F0
00
E3
FB
FD
F4
E8
FA
04
22
28
0D
F6
FD
FC
FE
09
21
15
FF
10
32
10
0B
12
EB
0B
FE
04
19
EA
E5
F9
02
FB
02
00
F0
FE
F3
D9
05
03
D7
0A
03
04
11
32
1B
ED
1D
C2
DF
E5
00
11
DC
FF
2A
10
31
03
04
22
10
03
EE
15
EE
08
0A
FB
0D
2F
19
ED
DC
1C
28
FE
E9
F3
C6
06
F5
F6
13
14
D7
E7
0A
E4
0D
01
D1
D6
0C
E8
00
1B
14
DD
0F
F9
FA
15
F5
F1
D6
08
FF
C9
DF
D3
06
BA
F2
1E
2C
0E
EE
03
1B
19
ED
F1
EF
0D
F5
0C
F8
F3
2E
1C
F9
FE
04
AE
F8
FF
06
0A
EB
15
E6
1F
10
FA
E1
16
24
16
13
06
FD
FE
F5
06
FC
0A
2E
EC
1C
E1
EE
D9
FB
01
18
E1
03
1A
F3
06
CE
15
D8
E1
C8
CB
EB
FE
08
03
C8
EF
FE
D6
FC
31
D8
0B
0C
E2
F3
17
FB
FC
E4
20
1C
D0
19
17
2B
CD
DF
14
13
ED
E4
20
02
F5
E4
FD
1B
0C
EF
15
04
09
01
17
11
0A
0F
05
16
F5
E1
DC
0B
05
34
2E
06
DB
EB
F9
00
17
1A
EE
F3
00
00
F4
15
09
F1
12
F6
EB
C6
FA
0C
00
0D
FF
E6
0B
DA
FE
0D
14
3E
09
EF
0C
0A
C0
D1
CE
E9
D8
04
09
00
0A
E2
BC
FF
C2
06
F4
2D
05
05
F4
DC
C4
21
FF
01
FD
10
01
09
D3
0F
17
00
09
18
D5
BA
14
E4
0E
CA
18
0F
14
EC
08
00
25
22
DA
06
ED
F2
F5
ED
C0
E1
C6
00
1A
3F
F2
48
0B
32
E5
02
A2
C8
01
FC
FB
FD
0B
EC
DF
F8
3E
15
17
10
07
09
21
19
0C
E9
01
E4
03
10
F6
FC
F7
02
04
18
F1
E6
FB
EC
1C
E0
36
F2
C6
ED
DA
09
06
EB
17
25
1A
1A
0F
E5
E7
0A
09
DD
17
F9
F9
21
02
EC
3D
05
D5
E1
E8
CB
0F
0A
0B
01
0E
07
FD
F9
F3
EF
D9
F5
E1
E3
E5
F8
D1
D6
FD
F3
1E
DD
E6
D8
28
1A
08
F2
1A
08
F4
14
0E
1B
10
2D
26
01
0A
34
FB
E7
16
41
48
11
04
FF
E2
27
12
E4
F3
DB
DF
00
FA
D0
D8
E2
F6
CF
17
D8
F0
FD
20
01
05
D9
C0
0C
0D
FF
15
C5
EC
14
DF
F5
1A
1B
0E
18
10
F7
1F
15
EE
0C
FD
F4
1D
0A
10
1A
2A
E3
E5
13
E6
F6
F2
FF
01
1E
FE
DD
DE
F6
F6
F7
04
E0
FF
C6
09
11
09
0E
22
3D
2C
EA
E6
E6
01
EB
FB
DF
EC
EB
3B
21
FC
05
00
14
23
E5
F7
E2
EA
B2
F7
39
05
1F
CF
D8
E9
00
20
F6
CA
2C
CD
F1
FD
EE
CC
CE
E3
F6
16
EC
E7
15
02
01
CF
20
FA
08
E8
0A
FD
CD
1D
F5
DD
03
CB
1E
F9
14
E5
E2
D8
1E
15
F5
F5
F4
FD
EB
DB
EF
C8
0A
E5
DD
FC
F2
DB
EA
15
13
33
36
F7
03
EA
ED
05
FF
FA
DD
05
0B
ED
2E
1F
ED
EE
D3
07
34
08
0B
F2
18
08
0C
0C
FB
FD
FE
0C
32
EF
EE
ED
FC
02
EC
FF
08
F4
E4
EE
11
ED
F7
E3
D1
03
EC
04
EA
DC
E4
E8
F9
FC
05
E6
E7
AE
CD
04
F8
EB
F9
03
EB
F2
E4
FF
0E
FF
F8
0F
FE
15
FD
E8
DA
0F
0E
FF
08
00
F3
15
00
05
14
F7
FB
F4
FE
FF
04
10
0B
F9
04
03
09
0D
FB
E2
F1
F5
E9
07
00
08
F4
F8
FF
F1
00
07
25
04
64
39
F0
ED
06
19
02
0F
10
D7
0E
DD
0A
F2
DB
96
CB
0A
DA
08
F2
3F
39
21
0C
C5
11
DA
ED
E3
08
15
1B
13
F0
1E
FB
29
02
FF
EB
E9
E2
2C
14
F0
E6
FD
12
FF
F8
D9
26
1A
EE
12
C4
1F
F8
1E
F4
11
12
F0
0C
4C
EE
2B
18
CE
05
FF
06
2A
21
E7
23
EA
E7
07
E0
D6
E8
03
EF
E7
26
E9
F2
E5
D0
FF
EA
14
02
2F
F4
02
F0
09
04
EF
1C
0F
14
21
DC
0C
EF
F3
25
FF
26
F2
EA
0F
03
E0
09
2C
11
FF
F2
FD
DF
F5
DA
E8
1C
1D
1D
0D
15
E7
E4
1B
13
02
0A
18
ED
F5
FB
DF
F6
17
2D
00
0A
10
01
E3
C7
D2
E3
0F
FE
1E
F7
14
25
0C
D9
0D
FC
E9
E6
F8
4E
09
E2
0F
0D
1C
F4
1A
F6
F7
DD
CA
DB
FA
02
F5
31
28
FB
F5
10
F8
34
02
ED
D0
0C
D1
0F
21
02
E3
E6
F3
10
0C
F5
09
F3
EE
17
25
F2
09
DE
2C
F3
F0
14
14
F1
09
E9
25
27
1F
F3
0B
EA
FF
07
10
26
05
DB
14
D9
0E
33
E5
E8
E6
11
E8
35
ED
01
E1
0B
02
18
D6
FA
10
EF
08
ED
E7
CA
F2
31
F5
DF
11
09
10
19
F9
15
E8
14
F5
CD
11
27
12
0A
10
DA
0E
11
C2
E7
E7
F6
11
0A
F9
E5
FD
ED
4F
04
81
FA
D1
E0
AC
E6
4B
A6
E7
36
F9
CD
05
12
FF
8D
DD
E2
33
EA
E4
03
F8
3A
BE
D8
B3
E1
EB
2F
4A
00
87
52
B9
22
EA
C3
16
B7
11
45
C4
43
41
46
15
11
67
1F
FD
CE
F6
DB
BD
FF
F4
10
A5
42
F1
0B
0E
FC
DB
F0
DD
02
12
3E
18
10
FD
24
21
1E
FD
09
FF
E4
13
16
08
1E
1C
02
0F
ED
F5
F7
01
0A
FE
1D
CA
E5
FB
18
03
3A
CB
E2
05
18
15
26
0E
0F
16
EA
F7
EA
14
19
F6
EE
D2
E0
2E
F9
E8
F9
FD
2B
FB
04
1C
05
0B
FB
01
FE
EC
0B
D5
DF
06
00
01
16
F4
BE
E5
ED
E6
F2
EE
04
08
22
00
E8
D4
DA
0E
11
20
04
11
25
F4
EF
E1
05
FB
0A
18
16
0D
F6
09
B7
01
F3
E4
EC
01
01
1E
11
FE
13
18
F1
00
0B
FC
FA
0C
15
CF
01
D1
08
F5
0B
16
E9
D9
02
15
1F
00
0D
1D
FA
08
F9
F4
09
2A
0C
05
15
AB
F3
F1
FB
05
EF
07
17
1C
1C
1E
F1
06
12
1E
E5
FF
21
EF
01
EA
05
F8
06
1E
F1
F2
32
19
1D
F9
0C
08
0B
DB
06
0C
F7
0E
00
F2
ED
01
09
15
F3
03
06
17
05
01
DE
F3
F6
FB
FD
FC
F7
F8
FC
CC
DD
E4
07
FB
06
15
10
22
10
08
FA
E9
F6
0D
F1
DE
D8
F9
EC
F6
FA
EE
F7
02
F8
03
09
FD
FC
04
00
FB
0F
16
19
17
F0
00
E3
F4
E2
F0
F4
F0
17
03
FF
F0
E9
FD
27
1A
16
F1
F9
F2
00
FD
02
FA
06
00
09
0D
0C
EF
F5
E7
0C
14
18
DE
CF
DC
04
F5
EF
12
FC
0C
01
04
0C
EE
DF
E1
EF
0B
0C
0F
05
E7
E9
FC
FA
10
FB
10
FA
F6
E7
02
FD
08
FB
01
0B
F3
F0
21
F6
F3
F7
24
02
0A
F4
0B
F3
F9
F7
EF
FC
F3
0E
E7
EC
DB
1A
12
FC
F7
0E
1A
F6
07
11
12
04
FC
F6
F0
FD
E9
0E
F2
F5
F4
F4
00
01
04
FD
F4
F7
0B
14
23
F7
DC
DD
05
08
1B
08
FB
FC
08
F7
F8
23
09
13
D0
FB
0C
DC
10
30
0B
0A
EC
35
FC
13
12
1C
D0
D6
FE
FF
0C
EA
18
FA
00
FD
17
0C
03
0C
E1
08
BE
D8
E0
0F
F9
2D
FB
E5
0E
0A
06
0A
0F
02
26
F0
FF
19
1F
E5
E5
E5
E0
D7
34
F1
D5
0C
05
26
FA
F0
18
1F
1B
0D
FB
01
02
27
EB
E9
E9
15
E2
13
F1
B7
F7
D4
CE
FE
EB
F2
07
1F
08
00
F4
12
FA
17
E6
1F
09
0E
F5
05
DF
14
FE
1B
0C
1F
0A
08
FA
C0
14
CF
D2
F1
1C
FA
FB
1C
F6
32
26
0A
E8
F0
E9
E2
14
36
02
FD
EB
08
01
F4
1C
DC
CB
0C
0B
F4
0B
18
1D
F3
04
D4
E8
F3
2C
05
05
15
BA
FF
F3
14
01
1E
0B
02
2F
20
17
F2
CF
11
F1
F2
27
27
F5
01
EB
CE
F7
F7
15
19
F1
33
24
1C
F7
E8
F5
13
E4
04
00
FF
19
11
E8
17
02
F1
0A
1D
15
06
1F
07
04
3E
15
00
B0
FD
06
31
1B
DD
1A
EB
10
02
13
ED
2D
2A
FE
1C
1D
DD
B7
08
E3
E3
05
30
F0
0B
E0
FC
30
0B
06
AD
BD
1A
09
FE
03
F8
0B
F1
FC
0C
52
04
FA
0D
04
3A
2C
D9
EA
31
33
3A
23
31
29
26
14
36
C0
E6
FF
51
20
5F
E2
03
01
0B
FE
F1
FE
FE
1F
FE
E4
F9
E2
D3
FE
C8
C5
FD
15
01
17
3E
3E
44
E9
FF
F0
04
FC
32
D5
DB
CE
D1
08
00
19
FE
16
AF
C3
12
CA
0F
15
F4
E3
D3
2A
17
F4
E8
FA
FD
24
09
0F
2D
10
58
CA
F0
F6
30
FF
E4
C8
E6
EF
F5
0C
2D
E5
18
36
CC
FB
FB
02
D2
26
26
02
DE
11
1D
F4
ED
0B
F3
22
25
29
2D
16
D2
00
1A
0C
ED
01
E2
24
12
17
32
F7
31
F0
0B
36
26
E9
32
14
FB
FE
00
26
2C
1D
F8
22
24
03
F7
C8
C9
D9
FB
04
D3
17
10
FF
0F
DB
DA
03
2A
11
ED
FA
E1
B4
FF
B7
17
2A
3C
CC
F2
CE
05
20
13
E9
A9
BA
0B
2B
FB
16
DD
FF
F9
F8
19
48
18
02
F1
ED
12
10
F0
01
31
18
33
2A
32
2A
1D
03
22
C4
CE
01
38
0A
5D
E6
E4
04
36
03
E5
0B
ED
0B
0F
DA
F2
D7
E9
FF
EE
D9
FB
0A
D4
0E
30
34
15
FC
FD
DE
0B
E9
2E
CA
C6
D5
CA
10
E6
1F
FA
14
B8
C5
09
D3
F4
E9
1E
F8
F5
35
11
06
DA
CB
AF
0B
0D
1A
22
00
6E
0A
FD
DA
26
02
D3
D8
EF
D9
F3
D5
43
E8
DD
15
EC
D9
BB
24
F7
07
33
FF
FC
13
FB
EC
E2
0E
F0
02
2C
1E
10
02
CF
03
0A
16
E8
05
F0
20
10
15
0E
E3
08
FD
09
29
EC
DA
D9
E6
E0
11
ED
09
12
09
1C
0F
EB
16
12
06
F1
49
03
08
1F
0D
E2
05
DE
02
0A
57
19
B8
CF
13
3A
13
1E
15
21
F4
0F
F3
F4
28
28
10
2E
EB
0F
EC
C3
E1
FA
BD
F6
2F
14
09
25
EB
EC
E4
F6
DF
B7
40
F7
F0
DE
EB
FC
2C
D2
DB
07
17
1C
F6
DF
27
D6
F9
1C
2A
10
0B
41
06
0E
19
FB
E0
DD
EA
07
00
F4
0B
EB
E2
E7
0F
09
CF
22
FB
22
C2
F6
04
1F
35
2F
E6
FA
DE
D4
D6
EC
20
19
48
FB
2C
FE
14
16
24
1A
08
09
06
EF
04
0A
14
23
1A
EA
04
F7
0F
F7
12
FF
E9
08
16
1F
03
00
2A
E5
EA
07
FC
06
0A
0B
2D
2F
DF
0C
12
FD
1C
ED
CA
12
1F
06
0B
E3
34
27
29
B4
FD
13
ED
FD
02
D4
F9
DF
15
1D
03
D5
EF
00
2D
EB
D9
DD
F6
10
1A
19
0C
F6
02
1D
0B
0B
1E
0B
0A
09
E3
F5
FE
FC
F7
F1
FF
F3
FC
F6
FC
FD
E5
EC
EB
09
1A
0C
05
04
D2
FA
F8
EC
01
FE
EF
05
EE
0E
F0
FA
1C
02
FE
09
0C
11
09
12
19
1A
E2
EE
DD
20
06
1B
11
08
0D
FE
0A
10
0C
F7
19
18
FD
FC
06
14
1F
10
05
05
FE
01
0D
ED
FA
03
12
13
17
16
FD
01
06
13
0A
E0
E7
E8
EE
D6
DA
06
F2
EB
10
09
16
22
19
0C
F7
EB
F6
EA
0D
20
00
08
FE
FA
FC
F6
F9
0E
1B
12
10
16
0D
11
07
F4
F7
E6
E7
05
0A
E1
04
ED
E4
E8
F8
FC
06
10
2B
08
1A
0F
17
02
D2
00
0A
D9
0A
1B
0D
09
FF
F7
ED
E4
0A
0E
18
0D
12
14
24
1A
04
EE
09
FC
FE
09
1D
21
12
F0
EE
E7
F6
E4
FC
FB
E1
E9
0A
23
FA
FA
1C
F3
ED
17
05
11
FE
07
0A
2D
18
EB
E2
0C
1A
0E
2D
F2
01
03
21
D9
E3
E6
07
25
EF
09
E1
D9
D6
FA
01
F5
24
06
F0
FB
16
E9
24
1E
FC
E0
F5
42
52
39
EC
F3
01
01
E6
01
02
F3
00
FE
EF
E9
23
FB
12
52
29
35
39
49
38
09
F4
FF
AD
F1
19
31
19
4C
0B
FC
06
F1
E6
04
23
16
14
15
FD
F1
E4
E4
02
07
09
18
00
E2
01
3E
20
0D
00
EB
E0
D7
D5
F7
F0
E3
F2
18
1D
EF
15
03
12
CA
EC
EC
C1
D5
CA
0A
FC
10
35
2D
1E
D8
F3
F0
D7
02
02
2E
27
4A
1E
FC
01
26
D3
D9
D0
F3
DC
E3
E8
F7
F0
EA
F4
F8
DA
F0
33
0C
01
39
05
E9
09
03
14
14
0E
29
12
02
10
EF
C8
B9
DF
2E
0C
0C
18
F4
14
0C
0F
06
05
1F
23
0C
12
0B
07
E6
11
F7
F8
30
2B
25
16
0A
04
10
F0
E3
B5
CE
FE
39
0B
DF
06
11
07
A8
99
B6
02
0D
03
07
03
D8
B4
F2
EF
0D
28
23
FD
0E
0B
14
40
3C
EE
C1
D7
3E
4F
39
DC
CB
0E
15
EA
0F
22
EF
EF
1B
0B
29
24
25
F6
31
2F
3B
3A
4C
33
02
03
20
AC
EA
3E
30
1C
36
15
20
1F
07
EA
F0
11
08
24
05
E3
EB
E0
F1
05
F1
E7
18
F2
CD
0A
29
30
0C
F7
FA
DC
E2
DE
0F
F3
EB
F9
08
19
F4
09
F2
F8
DB
F2
FF
92
D9
D4
33
08
0F
36
17
10
C7
C7
D4
E8
EE
FA
23
10
4A
0F
E3
0A
19
F1
C7
DC
D8
F1
02
F8
27
F4
0C
F5
E2
B5
CB
2F
03
03
34
08
D1
F3
FB
EF
03
14
1A
12
0B
FE
CB
DB
A9
FA
1E
1D
14
05
2D
10
1C
19
1A
EB
24
1B
06
23
06
FA
F1
F2
0D
E6
02
0C
00
F5
F7
D0
D0
E5
D2
DC
E3
01
2A
04
11
D4
E3
E7
C8
F9
E3
F3
F9
F0
1E
07
F1
09
07
FD
0F
FA
04
29
01
17
0A
0F
E5
F2
2B
27
18
F7
11
DD
00
FD
1D
34
13
D5
01
FA
16
0E
0B
0E
03
11
00
F2
03
F7
E3
EE
21
F9
13
E7
EE
00
B0
F0
CD
0E
14
12
E7
DF
E3
EF
00
F3
11
F2
1D
17
08
F8
F9
F1
03
03
EB
E5
04
E9
03
FA
05
F1
14
03
F4
2A
23
19
F6
06
27
EC
01
07
4B
0D
03
EE
02
ED
F5
06
03
F1
E0
FD
0F
DF
F2
F3
F6
E0
FC
16
DC
0E
1E
1A
DF
EF
D3
F9
0C
ED
1F
2D
25
29
00
F9
FF
19
02
0F
0B
2C
EC
F9
FF
E2
D3
FF
FE
FE
F2
00
F1
E9
DE
D8
0D
12
FC
E6
05
FC
F4
FC
F3
13
FE
FC
03
20
17
FE
07
08
0C
0D
01
23
DF
F8
02
00
02
14
F9
08
06
DE
03
3D
F1
E8
19
49
03
06
FA
0A
12
26
01
E7
EC
08
3F
FB
07
08
12
FD
03
E9
EF
11
0A
10
02
BE
04
0D
FD
01
CF
06
FF
06
22
25
24
F8
13
F5
38
07
21
59
05
05
CE
DB
D7
28
02
F7
19
FB
EC
02
DF
38
FD
00
2A
19
33
18
0C
FD
0A
23
09
FA
05
04
2C
20
0A
33
D8
E4
EE
FE
1B
BD
23
06
12
F2
FE
03
09
10
19
18
F8
DC
E4
EF
D8
14
0A
3E
EC
F1
F0
0C
0C
0A
EB
E9
01
0F
E3
EF
FC
0C
09
17
0B
1F
DF
FA
EC
10
03
DB
02
0B
34
1D
02
1E
04
E3
E7
F7
F1
FB
16
0E
1E
D9
F6
F8
11
14
E9
AD
08
2A
1D
FF
FE
32
0B
19
B6
E9
FF
F6
FA
FF
2E
20
00
F4
E4
00
D0
DB
F2
00
F0
DA
FC
FA
EE
04
F5
F5
13
18
1A
03
12
13
07
37
15
E4
ED
0A
15
0D
14
0F
24
26
EF
F3
E4
E5
0B
FE
0A
F9
12
F2
0C
F1
13
15
27
EE
FD
F3
29
05
0A
F3
07
F6
ED
ED
FD
04
15
1B
11
F1
02
10
0F
F3
F6
1A
0A
FB
2E
12
E5
E6
E6
0B
F1
FE
E8
D9
F6
11
07
F0
F2
F8
EA
F7
FE
FF
F4
F5
04
02
09
FF
D9
D0
C3
17
24
1B
02
16
22
E3
DF
E1
04
F1
EE
00
FB
F9
01
12
E5
FD
F6
F6
F2
F3
03
1E
02
06
F9
09
F2
0D
12
0A
0E
17
F3
BC
05
E9
0A
09
0B
0A
08
05
F5
05
0C
01
1C
1A
0E
1E
17
01
00
14
0B
0B
04
CE
06
FB
EA
F8
ED
F0
FB
E0
0C
1E
FD
0D
11
28
FC
FF
0E
F3
07
01
11
FB
00
FB
E9
12
04
09
22
F9
0B
00
03
EE
FB
1F
01
F6
EC
10
F2
FE
E8
E4
01
0B
14
F7
13
E3
CE
E3
C3
CC
E2
0F
0F
F6
0F
EC
E4
CA
B7
A7
F6
F6
F3
23
0C
FA
FD
16
17
02
14
FF
02
25
27
31
19
18
0F
17
1F
1A
2A
0F
19
D9
D5
13
1E
19
0A
D1
06
C0
2F
13
11
04
1A
15
F7
31
08
31
05
08
F4
04
16
DF
F6
FB
C4
EF
E3
16
21
24
DC
D2
E4
F0
FD
F7
0D
17
23
EE
0A
23
F3
06
1E
E3
03
C8
07
EE
0D
04
04
0D
F3
EE
E0
35
2C
3A
E5
12
37
01
EE
EE
14
2B
26
CC
F6
FE
17
F9
05
F8
04
03
E9
D6
ED
C9
E5
ED
FE
19
ED
F6
04
1D
FD
F0
D2
F8
F8
04
45
20
15
0B
F0
FD
F8
ED
F7
28
21
10
0F
EE
F8
E2
E2
D2
F6
F0
FE
F7
F6
EE
D8
D7
D9
25
14
02
0F
1B
22
FB
E5
D3
EF
DA
10
1F
08
FB
10
06
00
E3
01
E9
FA
13
42
17
FB
EB
1D
0B
08
0B
18
01
C7
F8
0E
07
0E
28
07
1A
02
06
11
0F
E8
E7
25
C1
E1
19
15
09
3D
D9
EB
25
01
10
04
1D
15
1C
F2
FE
0D
18
10
FC
B8
CD
D6
1D
F8
E4
03
14
1E
02
F7
11
F1
16
FD
FE
FC
F5
06
D6
BB
03
0D
13
0E
ED
BC
D6
FF
F0
E2
E0
EE
0F
1C
E9
FB
E2
E2
1A
39
2E
06
17
2A
F9
ED
E9
02
EE
FF
0C
26
07
EA
05
CA
06
F5
DA
EE
0D
F9
19
F8
F7
16
21
01
F3
04
FF
F2
0B
18
D9
F4
F2
13
F6
0D
24
ED
D4
08
FE
22
00
20
16
EA
F1
FC
DC
F0
24
FF
FC
16
A0
F0
DE
F8
F8
EE
FB
18
3D
12
35
FC
09
0B
0A
F3
1D
1F
FD
03
03
04
FB
02
1F
F3
D0
33
11
13
F0
FD
02
06
F7
0A
08
FE
0F
07
E5
06
33
20
07
10
07
23
0E
FD
05
F2
E4
D9
F2
0F
0F
02
0B
FE
2A
07
E6
F7
FC
09
0C
0D
08
EE
16
07
EA
F5
ED
16
FC
FF
12
1A
10
28
2C
08
F3
16
D2
07
DF
E4
20
07
0A
1C
0C
E7
FF
0B
ED
0C
01
18
F8
F7
FD
FF
22
1B
FB
11
13
F9
17
19
0B
05
F2
14
0C
FC
12
EC
DD
01
E9
EB
23
F1
DE
24
22
2D
10
E8
10
05
0E
09
17
14
06
EB
FC
00
04
0D
ED
19
1A
1A
07
0E
EC
0F
F5
0F
FE
FF
EB
DB
D6
F8
17
E6
06
E3
E7
E4
DA
E6
05
04
13
12
E9
05
15
F3
F6
F9
1E
EA
04
FD
DE
EB
23
1C
0C
02
0B
FB
20
F9
0D
FD
EF
13
01
0B
F3
21
22
25
FE
10
E7
1B
07
0E
DB
EC
0B
F4
04
EF
F6
F5
22
05
E2
0C
EF
E5
EB
10
19
06
FB
FB
03
DB
0F
E6
03
DC
28
F0
26
19
19
26
E0
0A
06
13
12
DC
11
F2
07
18
EC
CC
E0
DF
E9
EF
28
0D
F2
0F
FB
2D
10
33
0D
1E
EA
FF
CA
DF
1B
0C
1B
14
D5
F7
F0
E8
02
D3
D3
F1
31
0A
FC
27
E4
DA
EA
08
FC
1B
46
0F
06
EC
1E
07
EF
E1
11
19
17
29
EB
E3
13
EB
E7
FA
F2
09
F7
17
15
F9
00
EC
F4
E7
DD
0A
F1
D8
0C
10
0C
FD
F9
0F
E9
F8
E7
17
F2
F3
EB
0F
25
28
FC
F0
D3
DE
EF
F0
0A
09
4E
EA
FE
15
19
08
E7
F9
1D
19
F9
00
1B
00
E8
F5
0C
06
E7
D6
25
E3
18
10
D1
06
1B
10
09
E9
1B
FF
E9
08
1D
FE
01
13
19
F6
04
12
F1
FD
13
FD
CF
07
18
07
F4
D3
2A
FC
0D
DD
F5
10
1A
E3
39
EF
F5
04
0F
14
13
EE
C8
E7
10
08
D7
2C
0E
15
D0
F3
EF
EF
0C
24
07
F8
F2
2D
03
20
14
2B
D4
C6
DF
FC
FF
EF
1E
00
1E
01
19
12
05
ED
DE
05
BB
DF
F1
19
EE
28
E9
DE
04
03
02
F9
19
08
2C
F8
07
1E
0B
EF
D2
C1
D3
D7
28
E4
EA
12
0E
38
F8
D9
19
14
1B
0C
08
F5
01
1B
EB
C4
F2
1D
F1
13
DB
BE
E9
DD
E2
0A
E3
00
04
18
01
0E
E3
0A
FF
12
04
0E
05
1A
E6
FE
E7
0C
F6
1B
0C
11
0D
F3
E9
C0
19
C8
E4
00
21
FA
15
10
EC
2A
36
05
D0
F5
E1
ED
1F
2E
02
FD
F5
10
FB
F8
21
DD
C7
02
FF
10
0D
1A
1B
F2
F4
D8
D9
D9
1D
F6
FE
09
C7
07
F6
14
04
00
0B
0B
35
2D
2E
EC
D8
14
EA
FA
26
30
FC
09
E8
D1
EE
FB
20
17
CB
2C
2F
15
FC
F0
11
0A
F5
11
FB
00
24
1F
10
15
CB
F2
05
F1
04
42
28
13
FF
23
35
22
11
01
FF
D7
F9
FF
FC
02
1F
FE
18
E5
F4
0C
F9
FF
F8
13
C9
E0
D1
19
F9
2A
E9
D3
FC
27
F5
40
F6
16
1D
F7
10
E5
1B
0D
12
FA
E9
E1
34
F9
CC
FA
E8
31
F4
FC
1C
2B
13
F3
0A
E7
F4
07
D8
E2
03
EE
08
07
EC
BE
04
D0
C9
FA
FC
02
0A
19
0A
00
DB
F5
1A
0B
13
12
F9
03
DC
F1
E1
07
FB
16
09
07
07
09
0B
B9
EE
01
D8
EB
FE
14
08
1B
F6
26
27
00
F4
1C
01
06
0A
20
F3
F3
BF
10
11
FF
F6
D2
C7
FE
23
14
0D
0B
34
EE
02
EF
CC
F3
0D
0A
0F
19
A5
E7
F1
E4
19
FD
0F
05
15
0F
10
EF
F7
12
1A
D8
19
27
F4
FB
DD
FE
F1
16
26
0D
13
35
20
1D
FA
F4
F1
0D
DC
00
F8
EF
FF
B3
BF
C0
16
17
F0
C9
D9
C5
F6
1B
0E
05
02
0F
CC
1E
51
06
06
33
4B
11
3C
0B
15
22
07
F9
E3
F7
03
45
E5
F7
05
15
DC
FE
1B
22
38
DE
DB
F5
21
26
1F
E9
EA
F0
FD
13
17
14
19
2D
09
1D
FF
F0
DA
C7
E3
A2
CA
D1
C1
D4
0E
14
0B
E4
06
F8
FF
0C
00
05
08
24
63
54
3B
1E
03
2C
46
0B
27
F0
10
06
17
E9
31
C9
C7
D3
04
E7
B2
21
04
1A
F7
F4
23
06
18
0B
FC
0D
E4
22
ED
E4
0B
2A
32
F0
0C
10
25
26
04
31
E8
16
F8
E0
F6
28
44
3B
0B
0A
20
0F
EA
DD
E8
D2
BA
0F
1D
38
29
18
3C
FA
F2
DC
FE
21
1D
1C
3E
2F
B8
F8
F3
0A
0C
DC
D6
1D
19
29
0F
0A
54
32
35
D0
22
34
F9
EA
F7
EB
CF
C1
FC
F6
D9
FB
21
3A
FA
D6
CE
04
F7
0D
DB
02
CB
E4
FE
10
DF
03
DF
DA
F8
0A
12
F7
0C
0C
01
ED
E2
DA
DB
FC
F1
02
18
F8
E9
02
FD
F3
10
F3
EA
0C
ED
12
0E
FF
0C
EE
E0
E9
14
15
11
D7
F3
F7
CE
ED
F7
0A
0E
0F
07
29
F0
04
15
08
F1
F9
FB
34
28
0B
24
30
25
20
1A
25
27
17
0E
F5
E5
DA
2F
0E
E0
F7
EC
E5
0B
02
FD
3B
1F
1D
F0
F2
D4
06
14
18
0E
E5
01
FC
02
07
04
04
0A
1E
24
FE
FC
FD
1A
11
21
02
06
02
E9
12
2A
41
04
02
10
F2
F9
1C
1A
13
20
FC
0A
02
12
05
F4
F9
0C
DB
E4
F2
04
E1
E5
EE
F8
00
E2
1C
04
13
EF
D7
E8
EF
F4
F4
14
0C
03
F9
F0
13
14
22
08
FA
03
02
05
DB
DF
EA
04
10
E5
F4
05
01
07
FE
E8
EA
F3
0F
1C
29
F6
FC
1A
F0
F7
04
19
06
DC
10
DC
EC
0E
F8
42
EB
0B
1D
F0
1C
DC
22
0A
D0
F7
0C
06
EA
01
EB
D4
ED
E4
07
EC
F8
08
E7
D4
F1
F3
FC
22
0B
E2
2F
0A
10
02
00
06
11
12
F9
27
1A
E9
17
0F
E1
E6
07
E8
EE
00
F9
E6
F9
25
17
F9
F0
0F
25
0A
01
E2
CD
15
0D
00
0D
19
04
16
0D
30
EC
1B
31
09
FD
1C
0A
04
EA
0D
0C
02
EB
F6
00
C7
D1
F9
01
0E
E7
21
EC
FD
02
09
F7
F4
02
1B
10
11
FD
F9
03
DA
F3
F4
0C
0B
12
13
19
0C
16
FF
20
11
F5
04
F9
FB
11
23
FD
D5
F6
EA
EF
FD
13
0A
FB
1D
14
FC
25
29
26
DD
FF
01
FA
F8
EB
0F
ED
EF
F6
D3
D0
20
19
16
05
09
1F
FF
0C
EE
2C
20
0D
0D
27
09
20
11
F5
EB
EB
CB
EE
FF
0B
E7
03
2A
F1
E9
FB
0A
F8
F3
03
0C
10
F4
07
04
E5
ED
F5
20
00
EF
12
01
0C
C3
DA
CD
0D
06
0E
FC
FC
0B
0D
15
1D
F3
EC
FD
F6
D3
FA
11
E8
F0
02
0D
F2
FB
FB
13
03
0E
1D
F8
14
FB
10
14
11
E5
E4
F2
E7
DE
E9
EC
FA
FE
08
1A
11
01
FE
0A
1A
0F
1B
E6
E3
0D
EC
EC
EB
12
05
08
30
20
22
ED
E6
D9
07
FE
03
E4
EC
FE
05
08
14
04
F4
04
09
F2
FF
E4
DC
DC
F3
13
FE
FD
F6
E7
1B
21
0C
03
FC
E7
13
01
E2
F3
FB
04
EC
FD
10
14
0A
2C
FB
FA
FD
01
07
F6
01
0F
F3
FD
EF
EE
FD
FB
06
EF
E9
D5
08
02
10
13
0F
07
0D
1D
20
1A
07
14
FD
ED
05
FD
FC
F1
0A
00
EF
0B
16
0F
13
13
0A
1D
15
22
C4
E9
DB
FB
02
20
00
F3
E9
FA
00
0A
07
0C
F5
F3
EE
DD
0F
13
2F
07
0D
09
0B
2C
2E
E7
FA
03
05
18
10
1C
27
1F
F6
F7
EB
F1
07
01
05
F8
15
DF
FD
03
1D
18
3B
E2
EE
01
16
07
10
FD
13
02
E3
F3
F0
0E
1B
10
05
E1
E9
1E
00
F8
F5
12
18
03
14
24
FC
04
F1
11
F8
FA
00
CB
EB
11
0D
06
FE
F7
D0
E8
FE
ED
E9
ED
FE
05
16
03
D8
CD
C9
1B
22
1F
01
17
28
E1
E1
DD
01
F5
F8
0C
03
FD
F9
14
C7
0C
ED
F5
F2
F1
00
15
FD
FE
03
10
F5
07
0D
0C
02
09
05
C3
FD
D5
0D
FD
0D
1A
F9
F6
FB
0A
1E
05
19
1D
F8
17
05
F9
05
1F
04
03
03
AB
06
FA
FA
F4
E6
FF
08
05
09
29
F5
09
13
2A
01
FF
17
FB
FF
F3
0F
F9
F6
0F
EA
FE
15
11
21
FC
0D
02
05
F7
FE
0C
FD
06
04
05
FD
04
F9
EB
14
0F
34
0C
06
05
12
1E
27
E7
F4
FF
E4
0C
16
25
21
1F
F3
FB
ED
F3
07
0B
F5
FE
1C
D9
F1
0E
14
11
32
E3
F5
1E
13
0D
0C
FF
07
0C
EB
F4
FC
15
18
0E
FD
F6
F7
21
0C
F4
F6
03
11
06
0F
1D
FA
03
F6
12
FD
F6
FB
D2
DF
0E
03
17
FF
F9
D9
EA
FE
F8
E7
EC
F8
02
0F
F8
DD
D0
CC
1B
2C
27
F7
1B
29
ED
E4
DC
FD
F5
F9
FD
07
FC
EC
1B
E3
07
F6
E8
EC
F8
03
18
00
FD
FF
0A
F2
0C
05
12
04
07
0E
D1
F1
F0
0B
FB
0C
16
01
F4
F5
03
12
02
20
0F
FE
11
02
F9
05
10
07
FB
0E
B8
ED
F0
F1
FE
F4
F6
0B
0E
02
25
06
0D
11
16
02
02
0F
00
0A
0C
0C
03
05
13
E9
EB
18
12
13
F4
02
0A
FE
F8
FD
13
00
07
B7
B0
E4
11
EA
E1
BF
F8
F5
0C
14
2C
0D
FE
1D
EB
F2
AC
11
08
D9
19
1E
16
01
FB
0C
AF
D9
18
25
11
E2
32
E6
B4
D7
FB
F7
23
14
0F
E2
F3
FC
1B
07
12
F8
FD
F9
0F
16
DC
00
05
E7
FE
07
D0
DA
DE
F8
BF
CD
0D
06
D2
FB
E1
1F
23
E5
DA
C5
09
00
DE
25
0D
EF
3F
22
25
1D
25
35
E8
14
2F
FA
F8
C8
2E
09
F0
02
16
D7
DA
DF
E1
F5
FB
1C
0D
FB
F4
FB
07
E4
F3
EF
0A
E6
02
01
10
1B
CF
F3
F4
EB
16
0C
00
13
05
27
F0
1B
F7
16
0D
16
F6
03
14
09
C7
EE
9A
E8
01
1F
26
24
1D
33
FD
5D
2B
29
E6
29
16
E8
05
EA
03
D9
E9
FB
D0
FA
5C
2D
EE
02
FF
1B
15
28
04
4B
27
0C
25
16
E8
0C
0D
04
D1
CA
B7
E7
14
FD
E1
0C
30
ED
0C
19
19
0C
11
04
FE
FD
EE
FB
D3
E7
EB
E9
02
27
42
1D
F7
1A
EF
EA
EC
01
FD
00
E4
07
F6
22
2F
24
06
05
13
E7
E6
F9
FA
1B
29
0F
0D
20
FB
0E
FD
F4
F5
FE
0D
1A
2B
FF
12
19
0D
2A
26
FE
02
E4
DF
09
F1
0D
0C
0F
E6
F3
E8
05
FD
31
EA
E6
FD
09
08
17
01
00
09
D8
FD
F9
D8
EE
EF
46
31
28
0E
07
11
01
05
13
0D
06
07
EF
FB
05
29
20
09
01
0E
10
0C
23
13
13
E6
12
DF
DD
0E
F2
ED
16
05
02
00
FA
F8
D5
ED
EB
ED
E0
F8
0B
FD
07
1F
E4
0B
F8
FE
F0
06
E3
0F
06
1E
25
06
05
0E
FC
0C
02
FE
E8
FE
F4
02
E9
EF
FC
E8
F6
F8
D3
DF
FC
F5
EF
F2
FD
EE
3F
13
FB
F1
F7
F8
F1
F5
FF
EA
F4
E0
16
15
03
F5
01
F0
FA
F8
1C
34
F9
10
06
12
EB
0A
FE
FE
D7
D8
E0
F3
1C
0D
10
06
28
F7
ED
E7
04
EA
09
01
0A
F4
12
17
21
ED
EC
04
E9
D4
EF
13
1C
1E
0C
1E
20
F3
04
FF
E6
01
0B
14
07
20
0C
1A
1D
06
1D
FF
F4
01
DD
EA
F1
08
05
0A
0F
07
DF
0A
06
01
18
EA
F1
D1
2D
02
22
14
1B
01
EB
FD
13
D4
DA
F4
28
20
12
0A
02
F1
02
13
0E
FD
FF
0C
17
0D
13
21
27
10
05
13
12
22
03
07
0A
FD
0A
D4
E2
D2
C3
E2
E8
07
FB
06
E5
F0
D3
EA
FC
FF
E4
E9
F1
0F
05
0A
DE
F9
18
F4
F4
F3
E9
FC
0C
0A
1F
0E
F4
01
03
1C
F8
01
E5
F6
F2
EB
FA
F0
FA
F1
FD
D7
DD
D7
F8
F4
D6
0C
17
0F
0D
12
F5
F8
FF
00
F9
E5
F8
EF
EA
E5
16
14
09
FC
F6
F0
EA
E3
E9
0D
04
FD
DF
CD
DF
F9
E8
E4
01
03
15
1A
FF
01
1B
EE
13
06
06
1D
32
2E
23
FD
05
E7
FF
20
37
D1
02
E3
1F
FD
1E
F7
1C
F2
F9
B7
CD
07
F6
E9
EC
0A
F5
39
46
35
F8
08
17
00
20
13
EA
FD
18
EC
E2
E0
F1
EA
DD
FF
EB
01
08
24
F2
13
09
00
26
1F
1F
FD
E4
F8
10
11
1B
FA
EA
01
E5
F6
E2
DC
F0
F3
E3
DD
F6
FC
FB
03
FD
E6
EA
0F
0B
11
1F
17
07
03
FC
EA
E8
D5
C5
0C
14
1B
E0
DA
F2
1D
16
00
FA
EA
FD
E9
02
F4
24
35
25
1F
15
0A
06
03
F0
12
F7
FE
F9
11
25
22
08
10
F5
DB
E9
28
2E
2B
0F
24
1F
DD
FD
F2
01
E0
F1
0D
1D
2D
14
16
0C
03
0C
1B
17
37
2D
DF
00
0F
CE
E7
EB
2A
1A
F2
26
23
27
E6
D7
D6
D5
DE
11
19
EE
E5
C1
F5
E5
07
FE
1D
0F
ED
1A
DA
FD
A4
07
ED
B6
14
15
26
13
ED
03
93
D5
26
37
11
E0
1B
D1
A2
EE
07
F7
20
0E
18
BB
DD
E0
F6
F8
0E
09
1A
D3
35
35
DA
20
1D
04
E7
FF
D5
E5
FB
46
B8
E3
17
02
D8
F3
E6
3F
50
DF
D7
C1
1B
18
DE
42
14
E6
37
0F
26
D3
13
22
FC
0A
1C
05
FB
CF
1C
1B
F7
F6
20
DD
D8
DD
EC
EC
F3
10
37
00
FE
05
F7
F3
21
F8
22
F4
07
FA
09
15
CD
F8
DD
E5
1E
FA
F0
FB
14
1B
FB
22
05
08
13
18
F8
17
08
0F
CC
CF
AC
EE
D9
26
27
2D
2B
22
15
39
41
18
FA
30
31
ED
0D
D9
FE
E7
E8
02
CD
E5
5C
39
F7
0C
FE
1E
1E
18
07
5E
23
04
22
0A
04
1A
21
08
D6
C5
AF
F1
11
03
BA
0B
36
E9
E5
0A
03
09
AC
F1
10
2F
F0
06
00
B5
DA
FD
F2
03
08
2E
F0
F8
0B
E4
CD
FF
EE
0C
1B
01
FB
F4
16
E3
FF
DC
00
1F
11
03
10
17
25
EE
06
F6
18
FE
F4
E4
EA
EA
FE
FA
D3
0D
0B
0F
21
0C
09
FC
33
0B
F4
0E
04
FB
25
33
19
2A
2C
2B
31
39
21
23
2D
CC
EE
DC
24
12
F6
E7
E0
E9
1C
F4
F2
39
3A
28
DC
F2
FC
FD
13
13
10
F2
14
EC
EF
EC
0A
09
0B
26
22
1E
16
0E
EF
1A
25
12
1A
FA
DF
1D
14
2F
07
06
01
C2
E9
1D
13
21
2C
02
12
FD
16
28
05
EE
17
14
FF
FD
D3
E2
C9
E3
2F
10
D5
00
0B
17
13
F2
E4
02
E1
DB
03
12
12
0E
FB
19
18
0D
03
0C
00
EA
0F
FA
DA
E7
FE
EE
F6
E7
1B
FE
03
08
CF
D7
FD
0F
30
3C
F7
14
13
06
0D
EB
E3
FA
EF
10
15
34
14
12
05
24
28
24
F8
FE
10
00
09
10
18
14
16
F6
0B
E9
F8
F6
FE
1D
00
13
D4
EE
EA
1E
02
2D
E3
DD
FE
1E
1E
2A
F3
0A
09
E6
F4
E8
11
16
0C
00
EC
EF
30
F9
E6
F9
F8
21
FD
04
1B
11
0A
F6
05
FC
F3
0F
DA
EF
00
01
F5
0E
00
CD
F6
DF
D4
F9
F6
05
08
16
07
E4
D1
D8
05
12
0B
03
08
1C
F2
E9
E6
03
FC
0B
18
15
09
FD
15
C1
F4
FA
E3
F2
F5
0A
1A
14
06
09
1A
E9
14
16
0B
0D
00
14
DA
F3
D2
0C
F7
02
12
E3
E2
0D
14
18
07
0D
25
FF
0E
01
EE
09
20
0B
0B
0E
C4
FD
FC
02
04
01
09
0B
06
11
0D
FC
0B
05
12
E2
F2
10
EA
04
F3
01
07
FF
20
F3
05
24
1A
1C
FE
07
FC
07
F0
F4
01
06
08
04
FB
E7
E9
03
F6
0C
1A
23
1F
0C
11
0C
24
1A
FA
F7
05
02
ED
0F
0A
09
03
E0
00
FC
06
FB
FA
07
1D
13
E7
F5
EC
1B
F3
0C
F3
F3
F6
26
2D
1C
E3
FA
01
EB
01
EB
08
0C
06
FB
07
05
17
F9
F6
EF
00
0A
FF
0A
1A
F8
03
F6
F7
01
EA
07
F1
F4
04
FB
E9
07
FE
EB
16
F6
F3
10
FA
0D
08
15
FF
DB
D9
E9
05
08
F3
FA
09
FC
0A
F7
E9
E8
0E
11
02
F7
0B
03
15
F3
DF
03
E3
F8
FF
F2
28
2F
11
04
09
F3
14
15
1F
28
11
04
F7
EF
EC
F9
00
02
F4
E0
ED
FF
FC
11
0E
09
18
15
11
10
E8
0B
11
07
12
0A
EA
F1
F3
0F
0A
12
01
FE
FA
01
FA
08
12
06
03
DF
ED
00
F3
0B
F7
EA
14
18
12
F4
17
0B
08
04
F5
F7
DB
F7
F1
FA
03
0E
FE
E4
17
00
0D
EC
EE
08
04
FA
CF
D8
D2
F6
09
F9
14
20
06
D4
E8
E4
0B
00
F9
02
19
F3
15
F9
26
DA
E6
FC
0D
12
1D
00
F4
20
1B
08
18
E0
CB
DF
15
1D
1D
F2
F2
F2
05
FC
07
FB
E2
EB
09
F9
03
0D
08
0F
01
FE
06
E1
FC
FF
FD
E6
CB
0B
F5
00
1C
0D
1A
E7
EF
EF
FA
00
FC
F0
E6
F4
08
F0
0A
FC
F7
02
14
1D
11
05
25
1C
F3
00
17
F4
D6
EF
F8
09
E9
F1
DC
D4
08
EB
1E
EC
DF
FD
0A
FE
EC
08
07
EC
05
0A
E3
08
15
2F
E7
E9
F9
05
04
FB
22
07
F6
E7
EF
E6
20
07
13
EC
FD
F8
17
12
1A
09
F6
04
C3
EF
F9
0B
F8
D6
F8
21
14
04
27
1F
FC
03
FC
0A
00
11
05
00
03
EA
F2
F7
D5
C5
CF
0C
1D
22
EB
06
08
F8
02
01
0A
00
14
FB
FB
16
36
0B
10
06
01
EB
0A
00
FB
E5
D8
E3
F0
18
FD
0C
FE
0B
FD
F6
E5
F9
09
0C
F8
FF
FE
1A
10
1B
FF
FA
F9
EE
CF
F0
1E
12
12
05
12
10
EF
FE
EE
F9
F3
FB
0C
FE
0C
17
2F
22
08
1D
03
FD
F4
F4
E9
DF
17
FB
09
09
0F
EE
0F
12
09
1B
EF
F2
CA
22
19
14
18
1B
12
F2
F2
FB
E0
E3
F4
20
16
1C
0B
06
F2
01
11
0A
EE
0A
01
14
0D
15
04
0C
12
FB
13
08
1A
03
02
FE
06
FC
E2
F0
CC
D3
D6
DF
04
FF
F9
EB
F8
DE
E6
FF
F7
F3
F4
EF
16
1C
16
F5
FD
14
EF
E6
F7
E4
F9
06
0F
10
0E
FC
F8
04
07
F0
05
EB
EB
F0
F6
FC
ED
F8
EE
FD
CA
DF
CB
F2
E3
DC
0C
0A
09
E3
06
EE
FA
07
FA
F5
F1
F0
00
EF
EA
1D
12
FD
F7
F3
EE
15
1F
0E
E1
FE
F9
EC
09
09
F1
EF
FD
22
F8
24
28
1E
C8
D2
EB
EE
F5
FE
14
F1
16
E9
22
0E
0C
C7
D9
EE
C3
D3
DA
26
04
1A
F5
EA
E3
F0
00
D9
1E
1E
30
FC
12
34
E3
E8
CF
D3
D8
CD
0C
E1
00
26
11
44
FF
DB
0D
1B
01
22
0F
05
17
22
0F
E6
E2
24
E2
F5
DB
C7
F5
E1
DA
14
F7
12
0D
09
09
1E
FB
1B
F1
F8
EE
0F
F7
02
E7
08
FB
06
F8
00
0B
FA
FC
F3
C7
CF
12
C9
E4
0D
27
F8
27
21
F3
28
30
FF
CA
E2
D1
FA
21
36
22
F7
F2
19
05
F6
FB
DF
D5
04
FD
21
23
18
1C
F3
F9
EE
C0
C4
FA
E0
EB
02
F4
13
0E
28
0E
02
15
17
31
21
24
EE
D7
17
F5
09
12
2B
01
FB
EB
C1
F9
F7
1A
2D
DC
20
2F
18
06
ED
12
03
FA
18
EB
F0
28
EA
DF
E5
04
F1
02
D1
D5
E7
E2
F8
F0
FB
06
08
17
25
23
0C
F9
15
1A
03
2B
38
45
3C
04
FB
EA
E9
12
1E
CC
04
E1
05
0D
08
05
10
FF
F4
B6
DD
14
03
F8
F7
FF
FA
2D
40
3E
FF
05
21
12
33
0B
02
E9
02
E7
DA
E5
E6
E4
E9
0F
0B
0C
FA
14
F3
17
1E
E7
23
1B
24
2D
07
06
0D
1C
27
18
06
0C
EF
F5
F2
D9
E7
F9
F2
EF
E9
09
F7
F5
05
F0
06
13
F8
23
0D
14
0B
0C
F5
E5
09
F0
C2
03
12
06
E0
E4
FE
09
24
EC
FD
EA
F3
F9
14
03
26
4C
36
23
22
1B
11
08
F9
FA
F0
F9
15
13
37
13
0B
1B
F8
D8
BC
11
2B
35
16
27
13
CB
ED
E9
03
EA
E4
04
17
22
19
16
1C
11
12
2D
10
2A
15
D9
F9
00
F1
F4
F1
0B
09
EB
21
24
25
D8
E7
DD
14
FB
F7
1D
18
23
08
FA
F9
1E
FC
0A
E9
E9
F4
02
06
06
F9
F1
F0
E0
DC
DC
FC
01
16
16
07
16
F7
0A
FF
E9
F2
01
DF
CF
C9
14
04
E5
EC
02
F2
EB
F1
F8
10
0C
10
06
FD
EF
0F
0F
0C
2D
03
00
E9
E2
DD
EE
E5
F2
FE
F7
FD
FE
E2
01
11
23
24
06
F6
ED
31
08
1D
00
11
FE
0A
0B
13
FB
F6
FE
14
1A
1F
EA
D2
D6
F6
06
EF
16
11
06
06
FE
0D
E9
E5
D7
F2
F4
0A
05
FC
0E
F2
04
FF
F5
06
F2
F3
DC
DF
00
FA
0A
FD
FD
F2
EE
F3
01
F3
F0
FC
16
09
0B
FB
02
13
E4
F3
0E
11
F3
09
DC
ED
DB
E9
06
ED
E5
F5
1B
EF
F7
07
01
04
F9
FD
E8
E3
E9
08
1C
F1
DD
EC
05
03
14
F9
FB
EC
20
08
14
00
DE
F9
08
07
10
F7
F7
02
01
00
F3
E7
F2
E6
08
0A
F7
D6
DD
D5
F6
16
0F
0A
F7
03
D9
10
32
FF
F6
15
30
08
26
14
11
16
F2
F8
EF
02
04
24
EC
EF
EC
14
E8
FF
02
14
29
DC
E9
F4
F2
17
11
E2
F5
D6
19
0F
0C
10
09
2E
F1
1A
F5
0D
06
19
FF
D8
F9
DF
E3
EB
FF
10
12
FD
F1
F4
0B
00
FD
17
19
1A
33
3B
1F
07
04
19
26
0F
21
02
01
12
FD
EE
15
DA
D6
D9
F3
E6
CE
09
F7
0E
0F
0A
17
0A
09
14
0E
09
F8
F2
F1
F3
0B
20
21
E0
F3
06
0A
19
07
0A
00
08
F6
F9
00
20
23
10
0E
1C
20
FC
FA
D2
E7
E9
C9
01
1D
2C
23
13
29
00
16
E5
ED
07
08
13
17
10
D7
01
F5
FD
E9
C8
ED
24
15
1C
10
0A
3F
22
26
D6
14
25
04
F6
17
1A
F7
DA
F2
DD
D8
EE
18
16
DF
DC
D3
F6
FA
1C
2E
09
10
01
FB
EF
04
F8
EA
D4
DF
EB
FB
26
27
1D
05
18
FE
EA
E9
05
F3
15
E4
FF
ED
1E
26
25
FF
FF
05
E0
E6
EF
1D
19
29
1D
18
20
FD
F9
F9
00
04
FA
1A
10
2A
0D
1B
22
0E
23
11
F4
0B
DA
DE
F9
FF
08
0C
0A
FE
DC
FD
F9
FE
26
F5
EA
E1
26
13
1D
0F
14
0C
DD
F9
FB
DE
DC
FA
39
27
1C
17
0B
04
FC
14
17
02
FD
F3
03
08
10
2A
26
0D
03
10
15
16
22
11
FC
02
0E
DA
ED
E1
C7
E0
06
FB
F7
FD
ED
F2
D5
E2
F0
F8
DD
FE
F5
09
10
19
D6
F9
0F
ED
E9
F3
E5
FC
FC
15
20
07
02
06
03
0E
F1
F5
DC
F3
F5
E9
ED
F2
E9
E4
F7
E9
DB
DD
F8
EC
D6
06
0B
00
22
0A
EB
EF
FC
02
F8
E6
F4
FD
F1
EB
24
1B
03
F9
FD
EB
1D
22
12
0B
F5
E4
0D
F7
EE
E4
F3
16
14
0F
31
18
1D
D2
F2
F0
D4
FF
FF
0E
02
10
F0
22
F7
FB
E2
EF
C2
E9
DA
D3
28
10
02
F4
E4
C2
E7
01
E6
1A
26
FE
12
EA
F4
D1
DC
C6
CC
D8
CD
FD
E8
12
2D
29
4C
10
F4
F8
0E
F0
36
27
04
03
05
0C
00
ED
1C
F1
BD
D5
E6
F1
E9
D3
FB
F9
F6
3D
15
15
1A
FA
15
05
EC
DD
03
EF
E1
03
08
19
09
FB
FC
F6
F1
10
D2
D4
FD
D9
C2
17
10
17
15
2F
2C
FE
25
40
1B
D6
E7
E5
08
0E
31
15
EA
C1
FF
09
0F
DD
D2
EB
05
05
41
2D
12
18
FC
F5
EA
C2
C7
D7
E7
E1
06
33
26
FE
20
F7
FC
09
1F
1C
20
02
03
EF
17
04
08
0A
22
1C
E3
C4
D7
02
F6
3E
01
E2
19
29
24
22
00
0E
02
18
3B
FC
EF
20
8C
B4
B0
1A
13
ED
BE
D1
C8
07
14
00
0E
27
12
FE
16
DA
1D
04
FA
24
14
55
17
28
27
D4
CE
E1
F2
2E
2C
E0
FC
D1
06
E4
D9
20
34
30
FE
CD
F0
16
11
23
DD
01
F7
26
16
0A
F9
14
09
01
28
FB
D5
B3
DA
AF
81
B5
E9
C7
EB
E8
0F
0F
E7
F5
DD
04
05
DA
34
10
15
59
3E
33
06
28
45
1E
1A
48
08
F1
F7
09
09
18
C1
D4
E5
EF
D4
C9
02
05
0C
11
F6
11
03
03
E9
22
FF
F9
03
E2
D0
1A
28
03
D0
FD
02
22
26
E6
1F
00
05
DF
F3
E9
48
43
29
02
10
2A
F0
F3
BE
D4
D4
DC
14
2A
33
30
17
38
36
0C
E6
20
2D
1D
10
3C
20
DB
F5
ED
FA
C7
D2
2B
3D
13
07
1B
21
29
34
46
27
39
40
EA
EF
ED
09
E4
CB
DB
DB
BD
09
39
31
D7
DC
E9
0E
17
FE
08
EA
DC
07
1D
F1
E5
E8
F3
02
08
04
11
29
09
CE
01
08
0C
0F
03
02
1E
02
20
07
0D
01
D8
15
F0
F5
13
15
FA
23
F2
ED
06
E3
F4
E4
1C
22
1F
F9
F4
FC
FF
04
06
E7
DD
DE
14
E9
F7
05
1F
16
F8
F4
20
EC
F8
F9
14
00
E3
00
DD
D7
0E
15
19
08
E8
D5
DD
0F
F2
EA
DF
F7
07
0F
F4
F2
F3
FB
15
21
FC
0D
28
2F
F4
FE
07
F4
E5
FE
03
0E
FB
F1
01
D6
0B
D9
0A
E7
01
F2
06
F9
D6
04
1D
E6
F8
15
05
F4
00
0F
CB
F3
D8
0C
0A
07
2A
FD
F7
01
03
02
00
19
0F
DE
EB
F4
F1
FB
19
08
F9
FE
BE
05
EE
F3
02
F8
EA
26
2D
26
2F
01
D9
0B
10
0D
FA
04
F7
FA
07
F0
F2
FD
F5
DE
D5
18
18
21
F1
07
09
F9
FA
18
04
03
15
E2
CB
C0
14
17
FF
D2
E6
ED
E9
05
16
FC
18
0F
E8
09
41
16
0A
2F
3D
0B
2F
F8
17
0E
23
02
DD
E1
FC
3D
D9
F7
13
19
E2
15
0A
11
2C
ED
E3
F8
07
1B
0C
E6
F2
E1
E1
08
17
13
13
17
06
1F
F4
DB
D6
C8
F4
B5
C1
D5
D2
E0
22
F5
F0
E5
07
FB
04
11
27
F7
06
22
4D
34
36
1A
F6
1B
31
FC
11
EE
03
07
09
FC
20
DA
CE
E4
0A
F6
C5
27
0E
16
EB
F3
19
03
1E
15
F5
FE
E0
16
F0
D3
04
1B
3C
E8
0A
02
07
1C
0A
1F
FC
13
F0
DE
FF
1C
2D
30
1C
07
1F
06
04
E7
EF
DF
D4
FE
0F
2F
1E
11
39
F7
E9
E8
FD
13
16
0D
29
2F
D2
F5
FE
25
07
E7
D8
23
20
23
1F
08
43
20
3A
D2
15
23
EB
D9
E6
D2
DE
C2
09
0A
FB
04
18
31
0B
DE
C3
FB
01
FB
08
04
F4
05
0A
02
01
FE
11
E1
EF
F2
06
0E
F7
06
02
FC
F5
EF
F3
07
0D
0D
0A
00
08
0B
09
09
09
FC
03
EF
E8
E7
0F
0C
03
F1
03
F5
FA
F9
08
02
05
08
01
06
0B
02
08
0D
04
08
14
EC
F7
F2
EE
02
FA
FE
10
0B
0D
19
1C
FB
13
0A
FB
01
F5
0F
0A
11
FE
0D
05
01
00
0F
F1
E9
E8
0C
10
0C
F7
FD
FA
FA
0E
06
06
07
0C
14
06
01
FB
03
FC
FD
06
05
00
00
01
05
0C
06
01
F1
F6
F9
E9
EF
06
FE
FB
EC
FD
F3
0D
FD
13
FB
FA
00
05
0A
0E
09
03
14
F7
FE
00
F4
FB
FD
F3
FA
F2
F3
FB
01
0B
FC
FA
04
F3
F5
00
00
03
F0
F3
ED
F5
F6
ED
02
ED
E0
0A
18
0E
F1
07
FA
01
09
08
F7
F6
F6
F0
01
F3
0A
0B
07
03
06
0A
FC
F2
FA
23
15
0F
18
0B
05
F7
F8
02
CF
E0
E2
FC
F7
F8
0E
07
11
FA
02
F7
F7
00
11
0D
0B
FE
05
FF
FC
F7
FC
02
E0
E3
DE
20
18
05
21
15
1C
F7
F0
F8
D7
EC
EB
0A
04
04
0A
02
15
06
1C
03
03
08
DB
F9
FA
FD
FA
19
09
10
02
18
FA
06
09
FA
FB
EA
15
07
1D
1A
10
F9
D8
F3
F9
E9
EA
00
18
18
0F
10
03
EF
F8
11
01
0A
0D
0D
0F
0F
0B
06
0B
15
EB
0B
0F
07
FB
07
06
14
10
E3
DA
D5
CA
ED
E1
F9
17
21
F7
E6
CA
F1
04
11
E3
FC
E2
0C
0F
07
09
F9
0E
E2
ED
E5
F8
FA
02
F8
0E
10
FB
EE
FF
0E
04
F7
EC
E4
03
00
05
F5
EF
EE
08
F3
E6
E9
F4
DF
DB
07
0C
15
01
01
FB
FB
FC
15
E1
F5
F7
EC
F4
F4
12
0B
EF
13
05
0F
FE
04
F4
F1
04
23
EC
10
14
1A
13
00
FB
0C
F3
ED
E7
37
FF
EF
1B
1A
E6
02
F3
10
FE
24
FB
FC
02
0B
23
06
FE
F7
F5
FE
F3
ED
FB
0A
0B
13
0F
E9
04
09
ED
FE
ED
00
00
11
07
19
2E
EA
EF
E8
21
F9
04
2E
FC
02
FE
10
F9
13
F9
0E
10
19
09
FA
EE
24
EF
F9
12
06
04
04
06
FA
00
2E
0D
00
02
06
0D
06
EA
24
EC
E8
E7
01
FA
D0
10
0A
10
04
0B
0D
1E
24
20
F9
E2
D9
DD
09
08
05
14
41
0B
0D
FA
15
08
0F
14
FC
0C
F2
F7
FF
0B
FA
0C
0D
FB
F9
ED
0C
EB
0D
02
DA
0F
16
23
13
05
20
FF
09
04
F3
F6
0A
0E
07
22
ED
00
FB
EA
06
F0
C8
06
28
F2
EF
F7
2C
16
11
C6
02
0E
F8
FD
14
E9
FF
E5
09
F5
F3
EF
03
0D
FE
EC
DA
FA
09
0D
05
0D
F9
F0
FA
09
F3
11
EE
F6
03
D0
C7
CD
03
15
EE
04
EE
F0
E8
CA
E6
D8
E6
FF
0C
15
1C
02
FE
07
0D
07
01
1F
0D
10
16
11
1D
08
F9
15
1B
0E
07
05
DF
DB
FC
14
1F
0C
E0
01
F2
10
06
05
F6
FF
0B
01
FB
06
0B
E7
F9
14
0F
04
E6
EC
F4
CE
F0
DD
E9
06
0B
FC
C6
EE
EC
F1
F0
05
19
33
F1
FC
17
F4
F3
16
F9
F5
FE
17
FB
02
08
08
F2
09
00
FA
14
18
09
FC
0E
28
03
E6
F1
23
12
20
EB
00
0E
FC
04
FF
FA
FD
00
FE
CF
FD
FB
DA
0D
00
0B
F0
07
12
17
F1
01
E2
F6
1A
F8
0C
1A
0E
FF
F1
EA
D0
F1
F9
20
16
07
F8
FE
04
E4
C4
CF
04
FA
F5
EE
F6
E8
E5
EF
19
12
FB
00
FC
FE
0B
0A
F0
EF
F9
EE
07
24
07
FE
0B
10
14
F8
DD
CF
0A
12
F6
EA
EA
EC
0A
0C
01
0E
1C
03
C9
EA
00
07
02
03
FF
10
F4
16
08
0B
02
DA
18
E8
F6
08
14
07
2D
F8
F6
07
D9
F6
E6
19
19
1D
FA
F2
F6
FC
F8
04
E7
C8
E1
13
E7
F7
06
1D
17
00
FC
32
F2
F8
FE
02
F0
D0
03
DF
DA
11
09
0E
EB
E1
D8
DD
F9
E8
F6
D5
EC
04
FE
F7
EE
DE
F6
16
2A
14
10
24
31
F0
EC
0D
F4
E4
F6
0F
12
FD
E9
EB
E6
03
F2
16
DA
EF
FA
02
FD
D6
12
1D
FD
EF
FB
F0
FB
0E
20
E4
FA
DD
0D
F0
F5
35
01
EF
FB
FB
F1
04
13
0E
EC
E6
EA
01
0C
20
07
EE
FE
B0
FE
FA
F3
F3
DD
FE
24
2D
1E
31
03
DB
03
17
0E
0D
10
FF
F7
06
E2
F0
F8
F8
D9
D0
10
1C
29
F2
07
0B
FF
F7
0C
06
11
18
03
F4
11
2C
0B
F8
17
F6
EB
09
05
20
D6
D8
EE
F7
06
FC
0F
FB
0C
F6
FE
06
F3
1A
1C
04
0D
0F
02
F5
F5
F2
07
F8
F0
DB
DC
12
16
22
26
0C
12
F7
EC
FD
F7
EF
0D
08
FC
0C
07
09
0E
0B
15
F5
E9
E5
E7
D6
DE
0E
F8
02
0F
06
F6
13
14
0B
13
F1
FB
DE
24
17
28
FC
0B
18
F7
07
0E
ED
D7
FB
15
1E
11
FE
09
ED
04
08
0B
F9
F2
F1
1A
FC
10
00
0B
23
EF
0D
0A
0B
0E
07
09
05
03
EC
DB
E2
D6
D5
D4
F5
18
08
E8
EB
D9
E2
0B
10
EB
04
F6
0B
09
09
E7
0B
1B
E2
E1
F5
FB
F6
05
05
02
09
FE
ED
F0
11
12
EE
E4
08
F1
F4
00
E7
FD
E8
F0
F3
E7
DC
EA
EE
D8
0C
23
2C
EE
EF
F9
FB
0D
13
ED
F0
F8
FC
F8
F1
17
0C
FC
03
03
F8
25
08
13
CA
F1
E1
E6
09
27
10
02
EC
28
07
0C
17
26
E3
C0
EA
08
FD
F6
1B
03
1D
F7
08
14
0B
F1
DE
0E
C4
DF
03
14
F1
36
E3
D9
21
0E
02
0E
1E
09
21
F9
07
16
20
F7
E1
C3
D3
D9
29
F0
DE
02
07
3D
F4
E1
1E
17
15
08
02
F4
F5
16
DF
C6
E9
0D
F9
0F
E4
C2
E5
E1
E9
FE
E3
F6
0F
1D
07
FD
DE
FA
FF
1C
0D
14
08
19
EB
F9
E2
14
F7
19
17
21
16
F2
F0
BE
13
D9
DF
EA
19
FD
0F
08
E5
23
2E
FE
DD
02
EC
E1
11
39
EF
02
F5
0F
05
FA
21
E9
C9
02
02
0D
FF
13
15
ED
EF
DD
D8
E6
26
05
04
16
B2
FF
F4
07
03
FC
FE
17
38
23
26
EC
E4
0C
E5
F6
2A
23
FC
09
EB
EA
EF
02
14
0F
D8
31
31
15
02
EF
0D
07
DD
11
06
FE
1E
25
17
15
F5
EA
DC
00
0A
FE
DA
EA
00
0A
FB
26
3B
17
CE
C6
F2
DD
F5
0B
09
FC
25
EC
2A
00
0C
AB
E1
D2
D4
EB
E1
16
09
10
F7
D1
DA
EA
E1
D4
2E
23
21
00
16
05
FC
E5
E1
D3
E4
D4
FC
D2
01
14
01
43
FF
EC
1C
04
F6
24
0B
FA
15
0E
14
D6
F3
18
FA
EE
DE
DA
04
E5
D6
11
FB
0E
1D
F0
FC
14
F6
06
08
FB
ED
13
00
FB
FD
11
08
0F
E7
02
FF
0F
08
EA
C2
CA
00
D2
F1
00
0C
EE
25
26
E7
24
2F
FD
DA
E7
C4
10
0B
3B
0F
FA
E8
21
07
DD
03
F2
EA
1E
FC
24
0C
21
12
F3
FE
F1
DE
E3
FC
ED
CE
02
03
25
11
36
21
D6
1D
34
38
17
32
FC
D6
04
01
F7
0F
25
FB
E2
03
C6
F1
F2
FF
16
E6
1D
26
0F
05
FB
0C
F2
FC
1E
FD
ED
27
0F
11
F2
FB
EB
E0
01
EE
F9
C8
CC
C3
E5
F1
FC
12
05
F0
C8
EA
F7
FB
F1
E1
0E
34
FF
1A
E3
18
DA
F3
EC
0B
16
00
0F
05
14
22
F9
D9
E8
C0
B9
1D
17
18
E2
F1
F1
FE
03
F9
FC
EA
EB
F4
F4
0D
0F
08
03
06
04
16
E5
F7
10
E0
C5
C8
19
07
FB
15
07
FB
D7
FE
D9
F1
01
F4
11
E7
F5
01
F6
F4
02
F5
05
2D
1A
FB
0A
19
FD
F8
0D
0C
F5
CB
E5
0E
14
E2
F5
EE
D5
FD
F2
29
F4
F5
EE
05
02
F1
1E
1E
E6
F7
14
E0
FF
13
0C
FD
E3
CD
1C
F7
EB
15
E9
07
E2
ED
EC
46
0E
1B
DF
02
F0
25
07
14
05
DC
F5
F0
0E
DA
15
FB
D2
FE
22
07
E8
1C
1C
F6
F4
0A
18
F2
08
FB
E0
FD
E2
0B
0A
E7
CA
BF
0E
F7
13
EB
0F
16
1A
12
FB
08
EF
0B
01
EF
EA
FB
FE
E3
0C
21
10
FF
FC
00
CA
D9
E0
18
10
F0
06
F0
07
F3
E4
DF
FF
06
1C
28
05
09
0A
17
03
0E
F6
09
EB
E4
E6
20
11
F5
D3
05
DF
FB
EF
05
01
FE
F5
F8
29
11
13
08
09
0A
14
16
EC
F0
F8
DA
04
FE
08
1B
19
15
2E
3E
E6
1F
18
06
FE
FF
14
01
1A
01
06
FC
12
01
09
04
DF
DA
04
13
0D
E2
EB
EC
06
18
FA
09
19
1C
FD
10
0C
EA
EE
E7
F8
16
09
07
03
03
02
0F
F1
F6
ED
D7
F9
E7
F4
17
FF
F7
EC
ED
F8
0A
12
15
F9
02
0F
12
08
FE
15
10
22
E6
FB
06
F8
F2
FF
DA
FA
E4
F1
F4
F8
12
F5
F5
10
EC
DE
16
14
11
F8
E9
F6
E6
E8
F3
FB
E3
D0
FF
1D
09
02
0B
FC
0A
0A
0D
E4
EC
F9
FA
04
06
FE
04
08
14
10
13
F6
F9
EA
F0
F7
F4
1B
1B
1A
0A
14
0F
0E
1E
29
E8
EA
0E
01
05
12
24
11
0F
E5
F8
F2
04
F9
F6
10
04
16
F0
FC
F4
16
04
1A
F1
F2
04
1D
1A
20
ED
F8
FB
DD
ED
E8
FE
15
17
FC
FC
FE
12
00
F5
F2
F2
0A
11
14
0F
F3
FB
EB
F9
F5
F8
F5
E4
F6
02
00
FB
F4
F5
FD
00
F9
F2
FE
03
05
05
0A
04
D8
D1
CF
0F
0F
EE
FF
0A
10
01
EC
E4
F6
F9
04
FB
F8
05
F8
14
EF
ED
F8
F2
E9
FA
FF
27
0A
08
F9
10
E2
1B
13
15
1A
0F
04
CF
F8
EC
01
FE
0F
FA
F4
F8
01
09
0F
08
0E
14
14
1B
11
EF
0B
15
04
07
01
DE
01
F8
0A
08
06
F5
03
F0
07
10
07
06
F6
11
FD
F0
F6
FA
03
F6
0C
11
0C
10
F7
0F
06
02
05
FF
00
01
FA
00
F8
08
0D
05
E8
B9
AC
04
00
0E
D4
EA
F1
F5
13
21
F5
1D
17
F8
FA
46
14
15
28
2A
09
27
F1
01
1F
37
F3
CE
C4
F4
3C
E0
00
20
22
D9
15
03
0C
39
F8
03
F3
0B
1B
00
E0
E6
E7
C7
FC
23
0A
0D
1E
FE
0D
E7
D4
BF
BB
F5
AD
BB
D4
D4
DC
1C
E7
F3
EB
04
04
FA
F6
14
EB
FC
24
59
23
26
1B
FE
21
39
03
0F
EE
FD
0B
00
08
24
DE
CA
D5
07
04
C0
27
0E
2A
D7
EE
11
0F
22
0F
F8
02
D7
09
E5
D6
15
16
40
ED
14
11
0C
26
18
2B
FB
04
F3
E1
EC
17
1C
2D
16
F4
13
F9
0A
E6
FF
E6
DC
F7
11
33
0F
19
32
01
EF
F6
F4
10
0E
07
2F
38
E3
03
06
1F
1C
F6
DE
2D
13
16
21
FF
46
28
37
C4
0F
33
EC
E5
EF
CF
DB
C4
FB
09
FD
E7
1E
35
1B
ED
D0
F1
11
0D
0F
0C
03
FD
01
FB
08
FA
E4
FB
E8
FD
04
12
2B
22
0B
22
F5
E5
E4
E2
F7
F5
F6
03
F5
0D
31
19
FC
F4
11
F3
F7
09
E7
1E
1A
FF
08
10
09
12
11
EE
00
01
F0
17
19
11
13
21
04
16
19
11
0B
F3
F4
15
0C
18
0E
1C
03
04
F5
15
03
1C
E0
E2
CF
04
FA
0D
07
12
FD
F2
FD
0C
CE
F0
EB
36
2C
1B
04
09
05
06
FF
19
02
FC
13
F9
01
0A
27
17
12
0F
0E
19
14
12
1E
F7
01
FE
E9
E9
F9
E6
DC
06
03
02
FC
07
F5
DE
F2
F7
F1
DE
FC
13
FD
F6
1F
E6
0B
07
02
EE
05
E1
0A
03
1E
26
0D
FE
0E
00
17
F4
FB
EB
04
F8
02
F1
FC
04
F0
F4
EA
EA
DE
15
FC
E8
FB
FD
ED
24
0A
FD
F7
F1
EC
EB
F1
FC
DF
D7
E9
10
11
11
E9
F5
E2
04
11
08
D8
19
2D
E2
03
27
26
09
F5
31
0E
02
01
04
DF
F2
01
10
0A
EE
00
09
F1
FA
0A
0B
08
0E
0E
18
CE
D3
BB
0F
00
26
09
E5
05
0F
19
35
15
FE
19
D9
F0
E9
1C
E4
F0
06
F1
D6
3D
00
DA
1D
03
1D
0C
F6
19
2C
15
0F
08
11
1C
0E
F7
08
F6
F6
E1
0E
ED
BC
FD
C8
C9
D9
E8
E0
1C
27
1A
05
01
28
F2
10
D1
0D
F5
0B
0B
25
FA
FF
0A
26
14
10
04
0C
01
D0
F5
E3
D5
04
15
2C
E7
2D
0C
1E
18
F3
11
01
F6
00
0A
1F
05
00
F0
00
05
EF
F9
CF
DB
05
FE
E8
13
0D
14
FB
FE
D9
E5
16
20
22
09
1E
DB
FD
01
05
03
2C
04
05
12
0F
06
E5
EC
12
02
D7
1A
29
D7
EE
D7
E6
02
03
07
18
10
2B
1B
0F
EE
F6
EF
06
F5
F9
12
01
08
CB
FB
14
16
FF
EB
C8
DE
D7
03
05
1B
0C
F2
13
E7
08
BD
02
E8
D6
24
12
28
1E
0D
06
97
DC
F5
26
1C
0C
F5
DB
BB
0E
00
E4
18
1D
1E
C4
DA
FA
E6
03
F8
E3
16
C8
3E
2E
F8
16
26
1C
EE
1D
EA
ED
FB
46
C1
E5
16
03
E5
E7
EA
31
4C
EA
ED
CA
0C
14
E5
43
1A
FD
3D
11
2B
D0
15
20
05
0E
27
0C
07
F1
03
18
06
D0
01
E9
D4
E7
E8
F1
EC
08
4B
11
07
07
FB
F1
25
FA
1A
FD
0A
F6
0B
0F
DA
E2
DD
E3
1C
05
F7
E5
0B
1E
F6
19
FE
12
29
06
07
1D
1D
03
EB
D2
C5
FD
D1
13
2A
39
3F
15
18
23
2C
FA
F2
31
18
08
11
FA
E9
EC
E0
F8
C9
D5
42
2E
08
28
F9
1A
19
04
0A
40
22
12
0F
10
FC
23
29
F1
DF
C9
AF
EB
19
20
A1
EE
26
E9
CB
B1
EF
FF
02
CB
E6
FA
18
24
2C
E5
0B
FF
E6
FF
41
0F
0C
1D
24
FA
2A
EC
02
02
1D
FB
D8
DD
05
1C
08
0B
0C
09
E3
E9
06
1B
27
0D
0F
14
01
06
0C
F7
D9
ED
DC
E7
11
01
0A
2E
FD
FA
F6
EE
D9
C4
FB
C0
CF
DA
E7
FA
05
E5
FC
E4
05
EB
EB
E3
F5
FA
00
11
35
36
2A
1F
FB
2B
36
18
18
FA
F6
04
0B
F9
34
EC
CA
F2
0A
E1
B0
14
0B
06
ED
F7
0C
02
01
0A
06
F6
E5
01
EA
F1
07
2D
3F
FC
0F
14
0B
30
18
35
F4
08
EF
E2
E3
13
17
21
FA
E0
FA
EE
0B
F9
00
E8
D7
13
1F
13
19
09
23
FF
0B
1E
EF
F7
0C
11
2B
26
D4
01
EF
F8
11
DB
DB
12
16
E8
FD
E0
3D
36
25
C0
1E
32
F6
F8
03
EF
F0
CA
F0
E1
D5
EC
02
16
10
E1
CE
F1
12
FA
1D
03
EF
F2
0B
FB
0B
F9
EA
FB
00
00
FC
12
1A
19
04
29
F5
E6
E6
E3
0A
ED
08
02
FD
1A
25
22
F4
F0
FF
F9
F9
0F
F9
05
17
FF
FF
07
0F
1C
1F
F2
FE
06
04
09
0C
15
13
1C
04
FE
19
20
FA
F7
FB
0E
15
14
16
1D
02
0C
F2
0C
06
15
D2
D2
C9
FA
F3
0D
01
07
06
FA
F6
0D
CE
EA
F0
34
23
22
FF
18
0D
06
FD
11
05
0E
10
04
06
14
31
18
09
06
04
0A
21
05
1A
0F
16
EE
E5
F4
EB
F8
E2
FD
FF
FF
F4
FE
F4
DF
FB
F9
05
E5
EF
07
FE
FB
14
EA
07
0E
09
EB
05
E1
03
10
24
31
1C
03
0A
FF
15
01
02
F8
05
FB
16
F3
16
07
02
F2
D8
F0
D5
15
FF
E9
FD
01
F3
0A
16
FE
E7
F7
E3
EF
F4
F7
DA
DB
E1
0E
07
17
F5
F1
DF
E9
ED
09
F7
01
05
E5
E7
F7
EC
E3
F1
FA
F9
F7
26
FC
E1
20
1B
3F
DD
F0
E7
18
0F
09
F1
0E
16
09
FD
20
05
01
15
0E
F7
12
09
02
F0
DA
C2
DE
07
1E
21
12
15
16
FB
EE
FE
31
1D
13
FE
03
0F
00
E3
E6
02
04
E1
1D
01
EC
FD
D5
CA
32
11
0B
14
F6
E0
D7
0E
D7
19
F8
01
F2
0C
FC
EE
E5
D9
27
07
01
05
E9
1A
0C
E0
FD
0B
30
01
DE
F6
00
EC
01
F3
19
F5
DD
0F
10
0B
1C
0E
FE
F6
F1
FD
10
11
09
06
04
FD
DA
F1
01
EE
04
0D
29
06
F7
15
03
08
F0
F8
E1
13
10
FF
F7
1E
FA
E8
16
18
10
06
07
21
FF
0B
07
15
01
17
02
14
ED
10
20
0B
EE
DF
FF
03
0F
E9
E6
E0
03
02
1B
0F
0C
0B
07
EE
C8
F6
EF
17
EF
F4
FA
F0
EA
ED
EE
E7
F4
F1
F4
FF
D8
E4
ED
EB
E8
F3
0A
05
F8
18
1B
07
04
09
1E
15
0B
1A
45
40
2B
17
FF
04
E6
03
1A
F0
06
EA
10
12
0D
01
13
EB
F8
BB
E2
14
00
EC
FA
00
08
35
31
24
F2
F5
0E
0A
20
1A
F9
FA
0E
EE
E9
DF
F0
FD
F6
10
FB
04
FC
0F
ED
17
13
EF
19
15
13
09
08
F7
0E
10
22
08
F8
FE
F2
F1
E5
EA
00
E5
F8
F9
EF
05
01
19
F4
EF
F8
F8
09
12
01
0C
09
F3
E9
F3
F3
E3
D2
02
1C
16
D6
F8
F9
11
14
F1
F9
F0
FB
F5
0F
F9
1E
2B
1A
2C
FC
03
06
01
0B
02
F5
08
08
0E
2B
05
07
0C
F4
DD
E2
0C
1F
1B
0B
1F
1B
E5
F8
F3
10
FA
0B
0D
0E
20
11
0C
0D
00
06
1D
25
27
04
E1
F6
00
E5
01
00
0F
06
08
1B
13
0E
DF
EB
FC
FB
FF
02
16
18
10
00
FD
E1
FD
F8
F4
F8
E3
DC
F2
08
11
FE
ED
E8
EB
F1
EE
01
06
0D
F8
F4
09
1C
05
0A
E9
08
0D
E2
E0
F0
F3
FD
0B
F9
FA
F2
F8
F8
FF
0A
00
FE
FC
F6
00
25
28
27
26
10
04
F3
F3
F4
E5
EC
F2
00
01
F6
07
EF
FB
27
14
1E
FB
FE
F0
16
1B
19
03
19
11
FC
06
05
E9
F1
F8
18
22
32
E8
E5
EB
F8
F4
E5
0D
08
0C
0E
0A
12
F8
01
07
0A
08
16
0A
05
03
F1
F3
FB
03
01
E3
EA
E7
F4
F4
03
0B
E2
FD
FD
E3
EB
FE
FC
F8
FF
10
08
1D
F0
FB
04
F5
FA
E7
EE
FA
07
F8
F6
F0
20
09
FA
F2
06
07
FD
FA
FF
15
FC
E7
EF
E8
E9
EF
F8
D7
F8
F3
E1
F6
FD
E9
F1
00
F9
13
17
FC
EE
EC
DE
0E
01
04
12
FF
0A
E8
EA
EF
36
06
00
E8
03
D1
E1
02
DD
13
1B
1C
FD
1D
F9
1D
18
18
EA
F6
05
CF
F7
DE
16
F3
F0
FA
EE
FE
0C
27
22
06
FD
1B
14
F5
14
F8
E3
FD
CA
FC
E4
23
0C
F2
04
22
1A
CD
06
16
D9
00
0E
DA
0F
FC
E9
EE
01
FE
EA
F0
2F
F4
FB
15
09
18
F5
07
18
FA
0A
08
FD
01
EE
1C
FC
B6
43
33
F7
CF
EA
0B
00
F0
EF
F7
08
ED
14
FD
F4
FA
F8
16
C8
EE
E5
1C
47
1A
2B
1B
FF
1A
24
37
F4
21
04
D9
FA
EE
FD
12
0B
31
1B
38
0F
F7
36
26
F9
E0
12
0C
09
02
FA
E9
21
17
EF
F8
27
39
07
EC
10
D5
FF
E0
CE
DB
36
FB
D6
E4
FF
02
E1
10
FC
2A
F9
DE
FF
E8
F0
E9
DF
00
D9
E5
D9
EC
14
FE
0B
3A
F7
EA
FC
FE
08
D3
F1
17
26
07
E5
12
ED
FB
04
1E
E4
BB
DD
F7
5B
E3
E5
0C
10
FA
DD
F3
13
DA
E6
BB
06
F2
45
2C
FB
EE
11
0C
2C
07
14
FB
F6
10
F7
1D
DD
F6
26
14
25
E4
28
DE
F0
12
2A
10
22
EE
3A
E2
D1
0C
13
02
E8
08
E0
2D
02
F8
13
FF
1B
81
2E
0B
00
25
13
B2
EE
23
FC
E9
22
0F
5E
14
00
E7
09
FD
FC
2F
F4
DE
DB
14
BF
2C
D5
DE
1A
CE
1C
FF
CA
FD
06
FE
FF
12
E4
FB
02
FC
00
FC
D6
01
05
07
EF
2E
F3
E9
E3
20
0D
06
23
E5
FF
F2
F0
0B
F9
17
1B
0F
DA
20
16
DC
06
0A
11
F4
24
0A
4D
FE
0D
0C
44
D6
2D
F2
FF
D9
E4
03
B1
42
03
F9
FB
EA
2F
D7
15
EA
1F
3D
2B
25
F3
24
17
1C
17
E0
F6
39
17
D2
DA
F0
DE
EE
68
2E
14
E2
12
F2
14
EF
C2
07
DA
3C
06
EA
0E
12
D8
43
D7
D6
15
FE
0A
D6
F7
23
FE
0A
0A
F2
F6
F3
50
11
0D
16
E1
FD
22
ED
FE
16
E1
E7
06
FC
18
F6
E4
E3
4F
24
27
F2
EE
FC
FD
F4
EB
FE
F7
12
E9
F0
2B
F9
09
00
EA
22
EE
FA
E2
FE
15
0D
11
E5
E6
05
13
DD
34
57
FD
AB
A8
D0
DC
11
02
03
1F
E7
C4
50
04
81
A0
04
D4
27
E8
BC
0A
B5
E6
A3
06
1E
EE
0F
FC
10
E2
00
14
17
2F
E2
26
03
C9
0D
0C
3C
F8
FA
24
E1
F6
DF
EC
12
F1
08
DD
FA
F6
F0
06
14
12
0E
F4
FF
C3
D6
FE
42
3E
E0
0B
5F
BC
0E
E5
40
D8
F0
41
DF
FB
CF
E7
0D
19
EC
F9
08
E4
F4
E2
0A
15
FC
2B
0C
E9
C2
E5
E1
34
2E
D1
06
F4
F8
CE
15
11
F9
CC
FB
0E
39
19
E9
10
2C
F1
00
0C
E9
1C
CC
14
DC
20
E3
47
04
14
E8
0C
02
0E
E0
E9
F1
FF
FB
DD
41
0E
EC
FC
F1
C9
0E
FE
C4
F8
05
14
C1
E0
FF
03
29
F3
F1
17
0D
08
07
15
02
22
02
1C
EB
01
E8
0C
25
05
EB
E4
1B
E0
22
0A
16
F7
DF
0D
F7
E4
2A
12
01
47
FD
F4
EE
EF
1D
2D
34
E8
25
DC
D6
E1
33
FF
EB
BF
29
14
42
09
03
03
17
13
0B
FE
49
17
1B
EF
1A
1E
C5
02
0B
08
10
15
17
2A
FF
10
FA
FB
E8
F3
18
01
F2
14
FF
D6
27
F8
EF
07
DC
17
01
26
DE
0A
DC
36
43
92
D5
EE
37
F2
3E
26
EF
E2
12
2D
3B
FF
B4
30
1A
B8
13
E3
D8
C8
18
0A
F4
E6
05
CB
F1
32
0A
FA
E9
1F
5C
03
F2
1A
02
EF
14
06
0C
05
3A
A7
3D
12
25
05
4D
05
4B
C7
C7
1F
0E
EB
2D
07
0E
CC
24
16
DC
09
04
13
10
21
1B
2E
17
21
0D
29
DB
10
01
FD
DB
0F
EF
D5
3C
FA
ED
05
D3
14
E6
23
1D
36
54
1C
F6
F4
3F
16
F6
20
03
4A
1A
E5
01
32
E7
1D
08
15
F5
D7
FD
D3
30
ED
03
32
EB
08
F8
28
E1
C7
CA
F8
FB
55
29
24
E8
E4
FB
0E
EA
D5
C5
0E
EA
F1
2F
34
E5
D5
CC
B9
23
0E
FF
C7
07
3A
FF
19
31
1A
F3
EC
38
F0
0F
F6
E3
20
0C
E5
0E
E6
F5
04
0F
04
E3
3B
F7
F0
E9
C6
E6
FF
11
E7
1F
DE
18
FB
27
D0
F3
27
0F
E6
36
A3
F3
D4
0B
EB
FB
DE
C0
C4
B9
EF
2F
09
CD
E9
CE
D3
09
13
07
CF
D1
09
FE
08
F7
36
39
DD
ED
F3
09
D1
18
F4
09
E3
02
E5
11
C7
05
E9
F0
CF
1E
F4
03
F7
B7
0F
05
36
F8
E9
ED
FA
0D
08
29
07
DB
06
15
05
06
17
10
2B
0A
15
F7
08
FF
FA
17
F8
EC
E7
16
E3
25
F7
F9
02
DE
19
F9
12
0B
F9
27
16
DB
0A
00
01
02
18
14
29
0F
0E
F4
07
FE
03
12
FB
F8
F6
12
E5
22
02
FF
04
E3
13
00
18
FF
E8
13
1C
1C
FD
06
EE
F9
CD
07
02
FC
FC
DB
E9
FA
FC
25
12
D2
ED
E6
D5
E4
1B
15
D5
FA
06
E9
08
09
17
F2
0C
29
12
F2
F1
02
E4
13
C1
02
F0
12
EB
11
02
FF
0D
04
EA
E4
DA
16
EB
19
1F
FA
FD
F4
2D
09
0D
EE
F2
09
DF
E0
F9
1D
DE
02
C4
F1
FA
01
D1
18
19
F0
FC
14
E2
00
ED
EC
F5
0A
0B
1D
EB
F2
FA
05
CA
D1
01
F5
3E
64
21
F6
DF
DD
EC
BE
EB
1F
08
8F
07
3D
30
E0
EB
FE
E1
3E
1F
E5
C8
E6
15
F2
2D
F9
04
01
1C
0B
09
1A
DA
F4
EE
19
05
DE
F3
CE
0B
F3
F1
3C
26
D9
DF
E1
B9
CE
1E
E6
E9
E9
08
CD
05
1E
0C
D4
1C
5F
E1
ED
E3
0A
09
29
0F
F7
F1
FD
D2
1C
0D
F9
32
ED
E8
FE
EC
D4
ED
14
15
1B
C3
23
1A
07
0F
36
F6
DE
ED
32
0F
01
1B
05
3B
0E
F1
FF
00
0A
08
0D
F3
EA
E6
10
CF
20
E0
F7
13
E2
1C
02
12
E3
21
2C
DC
D1
16
37
0A
EB
11
FB
2C
EC
E5
D3
CA
11
24
0F
00
E8
F7
EE
CC
1B
E1
15
05
EC
19
05
EA
14
E4
F4
0F
08
E6
D3
2F
2A
20
FC
38
09
0F
18
00
0E
39
F9
E2
E1
D9
07
BC
E3
12
20
D3
02
17
16
10
E5
11
0E
0F
04
DA
EF
0C
07
F9
02
D1
09
EE
EC
FA
18
0E
DB
0A
0D
FE
FD
FA
07
F7
10
02
12
D9
02
03
0E
C5
11
F5
F5
03
0B
1D
01
1C
19
24
23
15
26
2A
F6
0F
FF
F9
E2
FB
EA
D3
25
12
E7
0A
FF
23
E2
0D
DE
EA
D4
07
09
53
3F
15
03
F6
E7
0F
C2
F7
E5
2E
BF
D3
40
31
F9
D4
13
D3
33
1D
DF
C8
F4
25
08
ED
FD
E7
24
09
12
DA
F8
0B
FD
F6
F1
E7
04
FD
F8
E7
19
F8
DC
F9
06
0C
0A
0F
E6
20
E5
04
F7
EA
FF
17
E9
E9
D6
12
F6
3F
38
0E
E3
F4
F5
0A
E9
FB
EC
FC
E3
E2
34
2D
E3
DF
D8
CF
09
09
E2
E1
EE
11
F2
12
02
04
EB
0A
07
EB
EE
00
12
EB
FA
C1
F9
F5
01
E2
19
08
EE
0B
14
ED
EE
EA
FB
F0
0D
14
07
E6
FF
E9
D4
F2
ED
F3
0F
22
FA
17
0A
1E
FE
49
26
0D
21
36
13
13
23
EE
B9
D3
D9
DF
38
03
DD
05
0E
36
F4
0E
EB
C9
BE
11
1A
44
11
09
DE
C1
ED
02
F9
DA
D5
EF
ED
04
23
42
E5
C3
D5
9A
F7
2D
1B
9F
C3
30
01
EC
13
DB
F8
FD
CE
FD
27
17
30
28
0F
36
F5
06
1C
31
0A
1D
FB
EC
E9
FC
07
F0
1F
EC
06
FF
04
31
0B
25
EB
F1
DA
F4
0B
62
32
1D
E1
E5
FC
08
E9
CC
E0
07
F8
FB
07
42
E3
01
CD
D3
1E
0F
06
C7
01
36
04
F5
0B
0C
0E
06
03
E7
03
FF
FB
03
F1
ED
FC
F8
F8
E2
06
04
F6
FF
FD
07
08
02
F9
0C
FE
0E
03
FE
04
06
FE
01
F4
F3
07
C7
E5
19
09
F1
D5
F1
FB
FB
00
E1
11
1A
E6
0F
FD
EF
EB
02
F0
EF
EE
11
1F
0B
1F
13
CD
06
E0
DA
CB
69
49
0A
D8
E7
19
EF
EC
02
D8
32
0A
E5
19
18
CB
EE
EF
C5
54
F8
CB
FD
FA
FE
F4
EF
07
08
03
FE
FA
E4
EF
F1
0B
0D
02
DC
20
F8
ED
C7
0A
06
CF
E7
00
FD
1B
14
EB
F7
14
08
19
D8
1F
F4
02
D7
01
EE
DD
F7
E5
2B
36
1A
F5
43
FF
06
1D
0B
EC
1B
F9
EB
F6
0A
0A
00
FD
FD
1A
F4
FC
2B
10
FB
E7
1E
FA
03
F1
C0
DC
F1
EE
F9
D8
E2
29
D7
FB
F8
2D
06
DF
09
FD
00
11
06
08
F2
E3
17
0A
F7
EB
16
0F
DD
28
25
D5
FE
17
0B
0B
31
13
48
0D
06
01
30
D8
05
16
FD
EF
0A
FF
C2
37
F4
EC
00
C4
22
DF
F0
16
F3
EC
09
08
EA
ED
24
37
1C
24
5B
21
F8
19
07
01
F7
13
E9
F4
09
E9
E7
2C
0B
E9
F7
0C
29
F0
F6
06
D9
CE
15
0D
E1
AD
37
3F
DD
EE
0D
13
28
13
FE
FE
21
E2
D6
DD
E2
04
E6
04
00
4B
F1
04
0C
03
04
1B
13
2A
02
F4
CE
FC
0F
FE
FD
EF
F1
04
03
FC
E3
11
00
E5
03
00
0C
17
EB
E4
01
E8
2D
FF
EC
1A
FB
F4
03
2B
F2
F0
14
22
09
03
18
13
12
FF
0B
0A
EF
FF
11
F7
F8
F8
E8
03
E1
25
F1
04
FF
E1
1A
FF
1C
EA
F9
DC
FA
0F
52
2B
28
DB
E5
F8
0B
F9
DA
F2
F4
20
F7
F6
34
EB
FA
DC
E9
21
0F
0A
C7
00
38
16
1A
08
1D
09
09
0D
08
F7
DF
00
F2
23
D4
1A
E8
05
F0
0F
F9
F3
F4
11
D6
04
D0
13
F9
03
10
15
FA
00
3E
05
F7
31
04
D5
04
F8
21
D6
14
F8
36
1A
F1
04
6A
FE
31
F8
02
97
D6
FC
90
45
FC
E5
11
DC
3F
24
28
E0
0D
DB
37
F0
2C
2D
DF
ED
EE
06
12
EC
DB
CF
08
CE
E7
32
31
C7
D4
DE
B7
D3
24
D5
F6
D3
06
B7
18
EE
F0
BF
D5
03
34
1D
49
EC
D8
04
04
ED
EA
D1
FA
28
F2
1E
20
F1
E5
CD
D1
21
07
27
C6
E9
1D
10
22
15
38
09
1B
0F
0A
0E
EC
F0
F3
2F
E0
11
ED
15
0B
1C
FD
E7
E5
1A
D9
04
CF
0D
EA
03
02
02
E6
00
F4
E8
F2
0A
11
F4
FD
EC
FE
01
F1
0E
E4
04
F5
05
01
00
02
E8
CC
33
ED
0C
0F
D7
F4
1F
08
19
05
26
E7
FA
E9
BF
F9
12
3D
19
05
FC
F1
FC
12
C2
05
F8
33
CD
D6
19
20
11
E5
EE
E2
24
16
F9
D1
1C
14
F7
F6
F6
FF
00
01
15
D5
F9
07
FE
0C
F0
E2
0C
F3
04
F4
0B
09
F7
05
11
0B
02
0F
EB
FE
F8
F3
FE
EB
10
EA
54
7C
2F
3A
40
FE
40
5F
5C
24
EF
F5
26
CD
DD
E7
35
21
DF
42
46
2E
12
E8
17
41
10
16
07
BD
C2
DF
7A
81
93
91
3B
AD
16
12
EB
DF
ED
FF
33
DE
A5
34
95
19
0C
AD
A7
E6
0F
E2
45
9B
9F
E4
1F
26
ED
E0
24
9E
BD
CE
26
D2
E2
3A
DF
1E
C2
EF
AA
E3
25
1F
E1
2A
AE
2D
A1
DC
E6
2A
B3
E7
1B
BE
DC
E9
28
37
E6
2B
20
10
FA
01
A5
AB
1A
18
C1
A8
D2
17
05
C6
01
05
23
FA
16
13
16
21
FB
13
0A
12
E5
EE
F5
19
17
0D
19
EC
E6
EF
F9
F6
0D
EA
F1
0C
F8
0F
01
03
1C
D3
F5
FA
FE
E4
E1
03
12
14
E1
10
17
18
DE
E4
F4
E4
2B
20
E8
33
F2
EF
A5
CB
1B
08
FB
A8
EE
02
1C
29
C8
36
20
81
02
C7
E5
0E
05
AF
2E
26
C0
9A
10
0D
FF
16
1C
3F
A1
EF
A4
27
3E
87
23
93
08
15
B4
05
1E
1B
30
3C
1E
F4
FA
9C
23
2C
94
AE
20
EF
DE
FD
F2
05
F5
EE
53
54
10
FA
35
52
15
09
03
15
01
D5
00
F1
F6
19
C9
00
EB
0F
09
0D
EC
E0
1E
17
C8
FE
01
15
DF
E9
20
E5
0B
E3
EB
17
0D
1C
EC
DD
02
15
0C
D8
F5
F6
18
D9
07
1A
E7
E4
14
0E
E7
0C
20
EC
D0
00
00
00
00
00
00
00
00
00
00
00
00
00
00
00
00
00
00
00
00
00
00
00
00
00
00
00
00
00
00
00
00
00
00
00
00
00
00
00
00
00
00
00
00
00
00
00
00
00
00
00
00
00
00
00
00
00
00
00
00
00
00
00
00
00
00
00
00
00
00
00
00
00
00
00
00
00
00
00
00
00
00
00
00
00
00
00
00
00
00
00
00
00
00
00
00
00
00
00
00
00
00
00
00
00
00
00
00
00
00
00
00
00
00
00
00
00
00
00
00
00
00
00
00
00
00
00
00
00
00
00
00
00
00
00
00
00
00
00
00
00
00
00
00
00
00
00
00
00
00
00
00
00
00
00
00
00
00
00
00
00
00
00
00
00
00
00
00
00
00
00
00
00
00
00
00
00
00
00
00
00
00
00
00
00
00
00
00
00
00
00
00
00
00
00
00
00
00
00
00
00
00
00
00
00
00
00
00
00
00
00
00
00
00
00
00
00
00
00
00
00
00
00
00
00
00
00
00
00
00
00
00
00
00
00
00
00
00
00
00
00
00
00
00
00
00
00
00
00
00
00
00
00
00
00
00
00
00
00
00
00
00
00
00
00
00
00
00
00
00
00
00
00
00
00
00
00
00
00
00
00
00
00
00
00
00
00
00
00
00
00
00
00
00
00
00
00
00
00
00
00
00
00
00
00
00
00
00
00
00
00
00
00
00
00
00
00
00
00
00
00
00
00
00
00
00
00
00
00
00
00
00
00
00
00
00
00
00
00
00
00
00
00
00
00
00
00
00
00
00
00
00
00
00
00
00
00
00
00
00
00
00
00
00
00
00
00
00
00
00
00
00
00
00
00
00
00
00
00
00
00
00
00
00
00
00
00
00
00
00
00
00
00
00
00
00
00
00
00
00
00
00
00
00
00
00
00
00
00
00
00
00
00
00
00
00
00
00
00
00
00
00
00
00
00
00
00
00
00
00
00
00
00
00
00
00
00
00
00
00
00
00
00
00
00
00
00
00
00
00
00
00
00
00
00
00
00
00
00
00
00
00
00
00
00
00
00
00
00
00
00
00
00
00
00
00
00
00
00
00
00
00
00
00
00
00
00
00
00
00
00
00
00
00
00
00
00
00
00
00
00
00
00
00
00
00
00
00
00
00
00
00
00
00
00
00
00
00
00
00
00
00
00
00
00
00
00
00
00
00
00
00
00
00
00
00
00
00
00
00
00
00
00
00
00
00
00
00
00
00
00
00
00
00
00
00
00
00
00
00
00
00
00
00
00
00
00
00
00
00
00
00
00
00
00
00
00
00
00
00
00
00
00
00
00
00
00
00
00
00
00
00
00
00
00
00
00
00
00
00
00
00
00
00
00
00
00
00
00
00
00
00
00
00
00
00
00
00
00
00
00
00
00
00
00
00
00
00
00
00
00
00
00
00
00
00
00
00
00
00
00
00
00
00
00
00
00
00
00
00
00
00
00
00
00
00
00
00
00
00
00
00
00
00
00
00
00
00
00
00
00
00
00
00
00
00
00
00
00
00
00
00
00
00
00
00
00
00
00
00
00
00
00
00
00
00
00
00
00
00
00
00
00
00
00
00
00
00
00
00
00
00
00
00
00
00
00
00
00
00
00
00
00
00
00
00
00
00
00
00
00
00
00
00
00
00
00
00
00
00
00
00
00
00
00
00
00
00
00
00
00
00
00
00
00
00
00
00
00
00
00
00
00
00
00
00
00
00
00
00
00
00
00
00
00
00
00
00
00
00
00
00
00
00
00
00
00
00
00
00
00
00
00
00
00
00
00
00
00
00
00
00
00
00
00
00
00
00
00
00
00
00
00
00
00
00
00
00
00
00
00
00
00
00
00
00
00
00
00
00
00
00
00
00
00
00
00
00
00
00
00
00
00
00
00
00
00
00
00
00
00
00
00
00
00
00
00
00
00
00
00
00
00
00
00
00
00
00
00
00
00
00
00
00
00
00
00
00
00
00
00
00
00
00
00
00
00
00
00
00
00
00
00
00
00
00
00
00
00
00
00
00
00
00
00
00
00
00
00
00
00
00
00
00
00
00
00
00
00
00
00
00
00
00
00
00
00
00
00
00
00
00
00
00
00
00
00
00
00
00
00
00
00
00
00
00
00
00
00
00
00
00
00
00
00
00
00
00
00
00
00
00
00
00
00
00
00
00
00
00
00
00
00
00
00
00
00
00
00
00
00
00
00
00
00
00
00
00
00
00
00
00
00
00
00
00
00
00
00
00
00
00
00
00
00
00
00
00
00
00
00
00
00
00
00
00
00
00
00
00
00
00
00
00
00
00
00
00
00
00
00
00
00
00
00
00
00
00
00
00
00
00
00
00
00
00
00
00
00
00
00
00
00
00
00
00
00
00
00
00
00
00
00
00
00
00
00
00
00
00
00
00
00
00
00
00
00
00
00
00
00
00
00
00
00
00
00
00
00
00
00
00
00
00
00
00
00
00
00
00
00
00
00
00
00
00
00
00
00
00
00
00
00
00
00
00
00
00
00
00
00
00
00
00
00
00
00
00
00
00
00
00
00
00
00
00
00
00
00
00
00
00
00
00
00
00
00
00
00
00
00
00
00
00
00
00
00
00
00
00
00
00
00
00
00
00
00
00
00
00
00
00
00
00
00
00
00
00
00
00
00
00
00
00
00
00
00
00
00
00
00
00
00
00
00
00
00
00
00
00
00
00
00
00
00
00
00
00
00
00
00
00
00
00
00
00
00
00
00
00
00
00
00
00
00
00
00
00
00
00
00
00
00
00
00
00
00
00
00
00
00
00
00
00
00
00
00
00
00
00
00
00
00
00
00
00
00
00
00
00
00
00
00
00
00
00
00
00
00
00
00
00
00
00
00
00
00
00
00
00
00
00
00
00
00
00
00
00
00
00
00
00
00
00
00
00
00
00
00
00
00
00
00
00
00
00
00
00
00
00
00
00
00
00
00
00
00
00
00
00
00
00
00
00
00
00
00
00
00
00
00
00
00
00
00
00
00
00
00
00
00
00
00
00
00
00
00
00
00
00
00
00
00
00
00
00
00
00
00
00
00
00
00
00
00
00
00
00
00
00
00
00
00
00
00
00
00
00
00
00
00
00
00
00
00
00
00
00
00
00
00
00
00
00
00
00
00
00
00
00
00
00
00
00
00
00
00
00
00
00
00
00
00
00
00
00
00
00
00
00
00
00
00
00
00
00
00
00
00
00
00
00
00
00
00
00
00
00
00
00
00
00
00
00
00
00
00
00
00
00
00
00
00
00
00
00
00
00
00
00
00
00
00
00
00
00
00
00
00
00
00
00
00
00
00
00
00
00
00
00
00
00
00
00
00
00
00
00
00
00
00
00
00
00
00
00
00
00
00
00
00
00
00
00
00
00
00
00
00
00
00
00
00
00
00
00
00
00
00
00
00
00
00
00
00
00
00
00
00
00
00
00
00
00
00
00
00
00
00
00
00
00
00
00
00
00
00
00
00
00
00
00
00
00
00
00
00
00
00
00
00
00
00
00
00
00
00
00
00
00
00
00
00
00
00
00
00
00
00
00
00
00
00
00
00
00
00
00
00
00
00
00
00
00
00
00
00
00
00
00
00
00
00
00
00
00
00
00
00
00
00
00
00
00
00
00
00
00
00
00
00
00
00
00
00
00
00
00
00
00
00
00
00
00
00
00
00
00
00
00
00
00
00
00
00
00
00
00
00
00
00
00
00
00
00
00
00
00
00
00
00
00
00
00
00
00
00
00
00
00
00
00
00
00
00
00
00
00
00
00
00
00
00
00
00
00
00
00
00
00
00
00
00
00
00
00
00
00
00
00
00
00
00
00
00
00
00
00
00
00
00
00
00
00
00
00
00
00
00
00
00
00
00
00
00
00
00
00
00
00
00
00
00
00
00
00
00
00
00
00
00
00
00
00
00
00
00
00
00
00
00
00
00
00
00
00
00
00
00
00
00
00
00
00
00
00
00
00
00
00
00
00
00
00
00
00
00
00
00
00
00
00
00
00
00
00
00
00
00
00
00
00
00
00
00
00
00
00
00
00
00
00
00
00
00
00
00
00
00
00
00
00
00
00
00
00
00
00
00
00
00
00
00
00
00
00
00
00
00
00
00
00
00
00
00
00
00
00
00
00
00
00
00
00
00
00
00
00
00
00
00
00
00
00
00
00
00
00
00
00
00
00
00
00
00
00
00
00
00
00
00
00
00
00
00
00
00
00
00
00
00
00
00
00
00
00
00
00
00
00
00
00
00
00
00
00
00
00
00
00
00
00
00
00
00
00
00
00
00
00
00
00
00
00
00
00
00
00
00
00
00
00
00
00
00
00
00
00
00
00
00
00
00
00
00
00
00
00
00
00
00
00
00
00
00
00
00
00
00
00
00
00
00
00
00
00
00
00
00
00
00
00
00
00
00
00
00
00
00
00
00
00
00
00
00
00
00
00
00
00
00
00
00
00
00
00
00
00
00
00
00
00
00
00
00
00
00
00
00
00
00
00
00
00
00
00
00
00
00
00
00
00
00
00
00
00
00
00
00
00
00
00
00
00
00
00
00
00
00
00
00
00
00
00
00
00
00
00
00
00
00
00
00
00
00
00
00
00
00
00
00
00
00
00
00
00
00
00
00
00
00
00
00
00
00
00
00
00
00
00
00
00
00
00
00
00
00
00
00
00
00
00
00
00
00
00
00
00
00
00
00
00
00
00
00
00
00
00
00
00
00
00
00
00
00
00
00
00
00
00
00
00
00
00
00
00
00
00
00
00
00
00
00
00
00
00
00
00
00
00
00
00
00
00
00
00
00
00
00
00
00
00
00
00
00
00
00
00
00
00
00
00
00
00
00
00
00
00
00
00
00
00
00
00
00
00
00
00
00
00
00
00
00
00
00
00
00
00
00
00
00
00
00
00
00
00
00
00
00
00
00
00
00
00
00
00
00
00
00
00
00
00
00
00
00
00
00
00
00
00
00
00
00
00
00
00
00
00
00
00
00
00
00
00
00
00
00
00
00
00
00
00
00
00
00
00
00
00
00
00
00
00
00
00
00
00
00
00
00
00
00
00
00
00
00
00
00
00
00
00
00
00
00
00
00
00
00
00
00
00
00
00
00
00
00
00
00
00
00
00
00
00
00
00
00
00
00
00
00
00
00
00
00
00
00
00
00
00
00
00
00
00
00
00
00
00
00
00
00
00
00
00
00
00
00
00
00
00
00
00
00
00
00
00
00
00
00
00
00
00
00
00
00
00
00
00
00
00
00
00
00
00
00
00
00
00
00
00
00
00
00
00
00
00
00
00
00
00
00
00
00
00
00
00
00
00
00
00
00
00
00
00
00
00
00
00
00
00
00
00
00
00
00
00
00
00
00
00
00
00
00
00
00
00
00
00
00
00
00
00
00
00
00
00
00
00
00
00
00
00
00
00
00
00
00
00
00
00
00
00
00
00
00
00
00
00
00
00
00
00
00
00
00
00
00
00
00
00
00
00
00
00
00
00
00
00
00
00
00
00
00
00
00
00
00
00
00
00
00
00
00
00
00
00
00
00
00
00
00
00
00
00
00
00
00
00
00
00
00
00
00
00
00
00
00
00
00
00
00
00
00
00
00
00
00
00
00
00
00
00
00
00
00
00
00
00
00
00
00
00
00
00
00
00
00
00
00
00
00
00
00
00
00
00
00
00
00
00
00
00
00
00
00
00
00
00
00
00
00
00
00
00
00
00
00
00
00
00
00
00
00
00
00
00
00
00
00
00
00
00
00
00
00
00
00
00
00
00
00
00
00
00
00
00
00
00
00
00
00
00
00
00
00
00
00
00
00
00
00
00
00
00
00
00
00
00
00
00
00
00
00
00
00
00
00
00
00
00
00
00
00
00
00
00
00
00
00
00
00
00
00
00
00
00
00
00
00
00
00
00
00
00
00
00
00
00
00
00
00
00
00
00
00
00
00
00
00
00
00
00
00
00
00
00
00
00
00
00
00
00
00
00
00
00
00
00
00
00
00
00
00
00
00
00
00
00
00
00
00
00
00
00
00
00
00
00
00
00
00
00
00
00
00
00
00
00
00
00
00
00
00
00
00
00
00
00
00
00
00
00
00
00
00
00
00
00
00
00
00
00
00
00
00
00
00
00
00
00
00
00
00
00
00
00
00
00
00
00
00
00
00
00
00
00
00
00
00
00
00
00
00
00
00
00
00
00
00
00
00
00
00
00
00
00
00
00
00
00
00
00
00
00
00
00
00
00
00
00
00
00
00
00
00
00
00
00
00
00
00
00
00
00
00
00
00
00
00
00
00
00
00
00
00
00
00
00
00
00
00
00
00
00
00
00
00
00
00
00
00
00
00
00
00
00
00
00
00
00
00
00
00
00
00
00
00
00
00
00
00
00
00
00
00
00
00
00
00
00
00
00
00
00
00
00
00
00
00
00
00
00
00
00
00
00
00
00
00
00
00
00
00
00
00
00
00
00
00
00
00
00
00
00
00
00
00
00
00
00
00
00
00
00
00
00
00
00
00
00
00
00
00
00
00
00
00
00
00
00
00
00
00
00
00
00
00
00
00
00
00
00
00
00
00
00
00
00
00
00
00
00
00
00
00
00
00
00
00
00
00
00
00
00
00
00
00
00
00
00
00
00
00
00
00
00
00
00
00
00
00
00
00
00
00
00
00
00
00
00
00
00
00
00
00
00
00
00
00
00
00
00
00
00
00
00
00
00
00
00
00
00
00
00
00
00
00
00
00
00
00
00
00
00
00
00
00
00
00
00
00
00
00
00
00
00
00
00
00
00
00
00
00
00
00
00
00
00
00
00
00
00
00
00
00
00
00
00
00
00
00
00
00
00
00
00
00
00
00
00
00
00
00
00
00
00
00
00
00
00
00
00
00
00
00
00
00
00
00
00
00
00
00
00
00
00
00
00
00
00
00
00
00
00
00
00
00
00
00
00
00
00
00
00
00
00
00
00
00
00
00
00
00
00
00
00
00
00
00
00
00
00
00
00
00
00
00
00
00
00
00
00
00
00
00
00
00
00
00
00
00
00
00
00
00
00
00
00
00
00
00
00
00
00
00
00
00
00
00
00
00
00
00
00
00
00
00
00
00
00
00
00
00
00
00
00
00
00
00
00
00
00
00
00
00
00
00
00
00
00
00
00
00
00
00
00
00
00
00
00
00
00
00
00
00
00
00
00
00
00
00
00
00
00
00
00
00
00
00
00
00
00
00
00
00
00
00
00
00
00
00
00
00
00
00
00
00
00
00
00
00
00
00
00
00
00
00
00
00
00
00
00
00
00
00
00
00
00
00
00
00
00
00
00
00
00
00
00
00
00
00
00
00
00
00
00
00
00
00
00
00
00
00
00
00
00
00
00
00
00
00
00
00
00
00
00
00
00
00
00
00
00
00
00
00
00
00
00
00
00
00
00
00
00
00
00
00
00
00
00
00
00
00
00
00
00
00
00
00
00
00
00
00
00
00
00
00
00
00
00
00
00
00
00
00
00
00
00
00
00
00
00
00
00
00
00
00
00
00
00
00
00
00
00
00
00
00
00
00
00
00
00
00
00
00
00
00
00
00
00
00
00
00
00
00
00
00
00
00
00
00
00
00
00
00
00
00
00
00
00
00
00
00
00
00
00
00
00
00
00
00
00
00
00
00
00
00
00
00
00
00
00
00
00
00
00
00
00
00
00
00
00
00
00
00
00
00
00
00
00
00
00
00
00
00
00
00
00
00
00
00
00
00
00
00
00
00
00
00
00
00
00
00
00
00
00
00
00
00
00
00
00
00
00
00
00
00
00
00
00
00
00
00
00
00
00
00
00
00
00
00
00
00
00
00
00
00
00
00
00
00
00
00
00
00
00
00
00
00
00
00
00
00
00
00
00
00
00
00
00
00
00
00
00
00
00
00
00
00
00
00
00
00
00
00
00
00
00
00
00
00
00
00
00
00
00
00
00
00
00
00
00
00
00
00
00
00
00
00
00
00
00
00
00
00
00
00
00
00
00
00
00
00
00
00
00
00
00
00
00
00
00
00
00
00
00
00
00
00
00
00
00
00
00
00
00
00
00
00
00
00
00
00
00
00
00
00
00
00
00
00
00
00
00
00
00
00
00
00
00
00
00
00
00
00
00
00
00
00
00
00
00
00
00
00
00
00
00
00
00
00
00
00
00
00
00
00
00
00
00
00
00
00
00
00
00
00
00
00
00
00
00
00
00
00
00
00
00
00
00
00
00
00
00
00
00
00
00
00
00
00
00
00
00
00
00
00
00
00
00
00
00
00
00
00
00
00
00
00
00
00
00
00
00
00
00
00
00
00
00
00
00
00
00
00
00
00
00
00
00
00
00
00
00
00
00
00
00
00
00
00
00
00
00
00
00
00
00
00
00
00
00
00
00
00
00
00
00
00
00
00
00
00
00
00
00
00
00
00
00
00
00
00
00
00
00
00
00
00
00
00
00
00
00
00
00
00
00
00
00
00
00
00
00
00
00
00
00
00
00
00
00
00
00
00
00
00
00
00
00
00
00
00
00
00
00
00
00
00
00
00
00
00
00
00
00
00
00
00
00
00
00
00
00
00
00
00
00
00
00
00
00
